{
  "version": "1.0",
  "truncation": null,
  "padding": null,
  "added_tokens": [
    {
      "id": 0,
      "content": "[UNK]",
      "single_word": false,
      "lstrip": false,
      "rstrip": false,
      "normalized": false,
      "special": true
    },
    {
      "id": 1,
      "content": "[PAD]",
      "single_word": false,
      "lstrip": false,
      "rstrip": false,
      "normalized": false,
      "special": true
    },
    {
      "id": 2,
      "content": "[CLS]",
      "single_word": false,
      "lstrip": false,
      "rstrip": false,
      "normalized": false,
      "special": true
    },
    {
      "id": 3,
      "content": "[SEP]",
      "single_word": false,
      "lstrip": false,
      "rstrip": false,
      "normalized": false,
      "special": true
    },
    {
      "id": 4,
      "content": "[MASK]",
      "single_word": false,
      "lstrip": false,
      "rstrip": false,
      "normalized": false,
      "special": true
    }
  ],
  "normalizer": {
    "type": "BertNormalizer",
    "clean_text": true,
    "handle_chinese_chars": true,
    "strip_accents": null,
    "lowercase": true
  },
  "pre_tokenizer": {
    "type": "WhitespaceSplit"
  },
  "post_processor": null,
  "decoder": null,
  "model": {
    "type": "WordPiece",
    "unk_token": "[UNK]",
    "continuing_subword_prefix": "##",
    "max_input_chars_per_word": 100,
    "vocab": {
      "[UNK]": 0,
      "[PAD]": 1,
      "[CLS]": 2,
      "[SEP]": 3,
      "[MASK]": 4,
      "'": 5,
      "-": 6,
      "3": 7,
      "4": 8,
      "7": 9,
      "_": 10,
      "a": 11,
      "b": 12,
      "c": 13,
      "d": 14,
      "e": 15,
      "f": 16,
      "g": 17,
      "h": 18,
      "i": 19,
      "j": 20,
      "k": 21,
      "l": 22,
      "m": 23,
      "n": 24,
      "o": 25,
      "p": 26,
      "q": 27,
      "r": 28,
      "s": 29,
      "t": 30,
      "u": 31,
      "v": 32,
      "w": 33,
      "x": 34,
      "y": 35,
      "z": 36,
      "##o": 37,
      "##t": 38,
      "##l": 39,
      "##e": 40,
      "##d": 41,
      "##_": 42,
      "##h": 43,
      "##p": 44,
      "##r": 45,
      "##s": 46,
      "##a": 47,
      "##u": 48,
      "##c": 49,
      "##b": 50,
      "##i": 51,
      "##n": 52,
      "##g": 53,
      "##m": 54,
      "##x": 55,
      "##f": 56,
      "##w": 57,
      "##y": 58,
      "##j": 59,
      "##k": 60,
      "##q": 61,
      "##v": 62,
      "##z": 63,
      "##'": 64,
      "##-": 65,
      "##4": 66,
      "##3": 67,
      "##er": 68,
      "##es": 69,
      "##ar": 70,
      "##on": 71,
      "##d_": 72,
      "##in": 73,
      "##il": 74,
      "##e_": 75,
      "##ic": 76,
      "##an": 77,
      "##al": 78,
      "##_c": 79,
      "##_s": 80,
      "##ro": 81,
      "##ed_": 82,
      "##at": 83,
      "##pp": 84,
      "##_p": 85,
      "##ea": 86,
      "##alt": 87,
      "##gar": 88,
      "##ut": 89,
      "##pper": 90,
      "##epper": 91,
      "##lo": 92,
      "##en": 93,
      "salt": 94,
      "##la": 95,
      "##ugar": 96,
      "##ion": 97,
      "##ing": 98,
      "##he": 99,
      "##ter": 100,
      "##ur": 101,
      "##utter": 102,
      "##rea": 103,
      "##lic": 104,
      "##oil": 105,
      "##or": 106,
      "##res": 107,
      "##_b": 108,
      "##mon": 109,
      "##gg": 110,
      "##der": 111,
      "egg": 112,
      "gar": 113,
      "garlic": 114,
      "##resh": 115,
      "##el": 116,
      "##un": 117,
      "##hees": 118,
      "##st": 119,
      "fresh": 120,
      "##heese": 121,
      "##ves": 122,
      "##hi": 123,
      "butter": 124,
      "##om": 125,
      "##roun": 126,
      "##e_oil": 127,
      "##ow": 128,
      "##round_": 129,
      "##uc": 130,
      "##ri": 131,
      "##et": 132,
      "##li": 133,
      "##_cheese": 134,
      "ba": 135,
      "##owder": 136,
      "##ato": 137,
      "on": 138,
      "onion": 139,
      "##_pepper": 140,
      "##ra": 141,
      "##ream": 142,
      "##ice": 143,
      "##ck": 144,
      "##_powder": 145,
      "##re": 146,
      "##uce": 147,
      "ch": 148,
      "##ater": 149,
      "sugar": 150,
      "ground_": 151,
      "##ilk": 152,
      "##auce": 153,
      "##_clo": 154,
      "garlic_clo": 155,
      "##lour": 156,
      "##liv": 157,
      "##ick": 158,
      "##atoes": 159,
      "##sh": 160,
      "##pepper": 161,
      "##ch": 162,
      "##live_oil": 163,
      "##ine": 164,
      "##king": 165,
      "##ey": 166,
      "##ju": 167,
      "fresh_": 168,
      "eggs": 169,
      "##ol": 170,
      "##juice": 171,
      "##eg": 172,
      "##illa": 173,
      "water": 174,
      "##emon": 175,
      "##ee": 176,
      "##um": 177,
      "baking": 178,
      "##icken": 179,
      "##ot": 180,
      "##na": 181,
      "##lack": 182,
      "olive_oil": 183,
      "##_sauce": 184,
      "##reen": 185,
      "garlic_cloves": 186,
      "##anilla": 187,
      "##_sugar": 188,
      "##_m": 189,
      "##hit": 190,
      "red_": 191,
      "lemon": 192,
      "##onion": 193,
      "##ran": 194,
      "vanilla": 195,
      "##tra": 196,
      "flour": 197,
      "##am": 198,
      "green": 199,
      "##oc": 200,
      "##ab": 201,
      "##rot": 202,
      "##ry": 203,
      "##omatoes": 204,
      "##wn": 205,
      "##_f": 206,
      "##e_s": 207,
      "milk": 208,
      "##lack_pepper": 209,
      "##rown": 210,
      "##_w": 211,
      "##_so": 212,
      "##orn": 213,
      "##_cream": 214,
      "onions": 215,
      "##xtra": 216,
      "##as": 217,
      "pepper": 218,
      "##ried_": 219,
      "chicken": 220,
      "##rown_sugar": 221,
      "##ean": 222,
      "##ap": 223,
      "##ars": 224,
      "dried_": 225,
      "so": 226,
      "##ct": 227,
      "##star": 228,
      "##inegar": 229,
      "##is": 230,
      "##_juice": 231,
      "##inna": 232,
      "##innamon": 233,
      "##_ch": 234,
      "##hite_": 235,
      "##onions": 236,
      "##ley": 237,
      "##abl": 238,
      "##ush": 239,
      "##lea": 240,
      "##arsley": 241,
      "##oo": 242,
      "##e_c": 243,
      "##ds": 244,
      "##eget": 245,
      "##egetabl": 246,
      "cream": 247,
      "##ay": 248,
      "##_o": 249,
      "li": 250,
      "##up": 251,
      "##vinegar": 252,
      "vegetabl": 253,
      "ground_c": 254,
      "brown_sugar": 255,
      "sh": 256,
      "baking_powder": 257,
      "##ast": 258,
      "##dd": 259,
      "car": 260,
      "##ag": 261,
      "##ili": 262,
      "##ber": 263,
      "white_": 264,
      "##eet": 265,
      "##arm": 266,
      "##da": 267,
      "corn": 268,
      "##xtract": 269,
      "##extract": 270,
      "##eas": 271,
      "##ano": 272,
      "##ed_s": 273,
      "##me": 274,
      "##ppl": 275,
      "##and_": 276,
      "##_lea": 277,
      "##_and_": 278,
      "##_salt": 279,
      "##eef": 280,
      "##eler": 281,
      "##_brea": 282,
      "##elery": 283,
      "##uts": 284,
      "##_soda": 285,
      "##weet": 286,
      "celery": 287,
      "salt_and_": 288,
      "un": 289,
      "##inger": 290,
      "baking_soda": 291,
      "##an_cheese": 292,
      "##ant": 293,
      "##ell": 294,
      "fresh_g": 295,
      "cinnamon": 296,
      "##ustar": 297,
      "salt_and_pepper": 298,
      "carrot": 299,
      "##tomatoes": 300,
      "##room": 301,
      "##ushroom": 302,
      "##ed_b": 303,
      "vegetable_oil": 304,
      "##_extract": 305,
      "##e_juice": 306,
      "##armes": 307,
      "##otatoes": 308,
      "##armesan_cheese": 309,
      "##_onions": 310,
      "##_peppers": 311,
      "lemon_juice": 312,
      "parmesan_cheese": 313,
      "uns": 314,
      "##ed_c": 315,
      "##ries": 316,
      "black_pepper": 317,
      "##ustard": 318,
      "##eans": 319,
      "##ur_cream": 320,
      "##low": 321,
      "##black_pepper": 322,
      "##ed_sugar": 323,
      "##to": 324,
      "##rang": 325,
      "tomatoes": 326,
      "orang": 327,
      "##hedd": 328,
      "##heddar": 329,
      "##umin": 330,
      "##eeds": 331,
      "##heddar_cheese": 332,
      "##omato": 333,
      "##milk": 334,
      "sour_cream": 335,
      "##roth": 336,
      "##bs": 337,
      "##ushrooms": 338,
      "##ian": 339,
      "##_leaves": 340,
      "##ve": 341,
      "carrots": 342,
      "tomato": 343,
      "vanilla_extract": 344,
      "##ill": 345,
      "##it": 346,
      "garlic_clove": 347,
      "coo": 348,
      "##gh": 349,
      "##eason": 350,
      "##ec": 351,
      "##enn": 352,
      "##_beans": 353,
      "##berries": 354,
      "##lak": 355,
      "##_y": 356,
      "##ess": 357,
      "chili": 358,
      "dry": 359,
      "##olat": 360,
      "##ocolat": 361,
      "green_onions": 362,
      "##ed_butter": 363,
      "##nuts": 364,
      "##y_sauce": 365,
      "##ort": 366,
      "##hy": 367,
      "##ul": 368,
      "fresh_ground_": 369,
      "##ir": 370,
      "##co": 371,
      "cream_cheese": 372,
      "##hol": 373,
      "##_breast": 374,
      "##easoning": 375,
      "garlic_powder": 376,
      "##oney": 377,
      "##_broth": 378,
      "oil": 379,
      "whol": 380,
      "##_parsley": 381,
      "##alted_butter": 382,
      "unsalted_butter": 383,
      "##ka": 384,
      "##_oil": 385,
      "##_mustard": 386,
      "##e_sauce": 387,
      "##meg": 388,
      "##utmeg": 389,
      "honey": 390,
      "##_past": 391,
      "##antro": 392,
      "##ilantro": 393,
      "##ps": 394,
      "sweet": 395,
      "##_flak": 396,
      "##rum": 397,
      "##ters": 398,
      "##ise": 399,
      "##_flakes": 400,
      "##_sp": 401,
      "##ine_": 402,
      "fro": 403,
      "##hyme": 404,
      "##_v": 405,
      "##zen": 406,
      "##onna": 407,
      "##ayonna": 408,
      "##ayonnaise": 409,
      "frozen": 410,
      "##age": 411,
      "##rika": 412,
      "##aprika": 413,
      "##ini": 414,
      "whole_": 415,
      "##wine": 416,
      "appl": 417,
      "##_breasts": 418,
      "mar": 419,
      "##con": 420,
      "gran": 421,
      "##beef": 422,
      "##us": 423,
      "##ayenn": 424,
      "soy_sauce": 425,
      "mayonnaise": 426,
      "ligh": 427,
      "light": 428,
      "##_t": 429,
      "##vy": 430,
      "##asil": 431,
      "##kin": 432,
      "##_vinegar": 433,
      "##ed_tomatoes": 434,
      "##_olive_oil": 435,
      "##ad": 436,
      "##_seeds": 437,
      "##gin": 438,
      "fresh_c": 439,
      "parsley": 440,
      "##orc": 441,
      "cayenn": 442,
      "##ocon": 443,
      "##oconut": 444,
      "##irgin": 445,
      "##irgin_olive_oil": 446,
      "##ix": 447,
      "chicken_broth": 448,
      "yel": 449,
      "yellow": 450,
      "##hir": 451,
      "worc": 452,
      "##esters": 453,
      "##hire_sauce": 454,
      "worcesters": 455,
      "worcestershire_sauce": 456,
      "##ers": 457,
      "##starch": 458,
      "cornstarch": 459,
      "##_flour": 460,
      "fresh_parsley": 461,
      "##rumbs": 462,
      "extra": 463,
      "##_virgin_olive_oil": 464,
      "extra_virgin_olive_oil": 465,
      "al": 466,
      "pec": 467,
      "bacon": 468,
      "paprika": 469,
      "##ked_": 470,
      "##_water": 471,
      "##ks": 472,
      "hea": 473,
      "lim": 474,
      "fresh_ground_black_pepper": 475,
      "hot": 476,
      "pecan": 477,
      "##red_": 478,
      "##ell_peppers": 479,
      "chili_powder": 480,
      "heavy": 481,
      "##_chicken": 482,
      "sp": 483,
      "##_seasoning": 484,
      "##ulat": 485,
      "granulat": 486,
      "##rice": 487,
      "ground_cinnamon": 488,
      "potatoes": 489,
      "##hipp": 490,
      "##als": 491,
      "##mar": 492,
      "##rup": 493,
      "##yrup": 494,
      "##e_pepper": 495,
      "##isin": 496,
      "granulated_sugar": 497,
      "mo": 498,
      "nutmeg": 499,
      "beef": 500,
      "##_g": 501,
      "wal": 502,
      "##sp": 503,
      "##ina": 504,
      "##read": 505,
      "##esam": 506,
      "##hips": 507,
      "##_paste": 508,
      "bay": 509,
      "powder": 510,
      "##tock": 511,
      "##_of": 512,
      "##ett": 513,
      "##ine_vinegar": 514,
      "##_soup": 515,
      "pecans": 516,
      "##almon": 517,
      "dic": 518,
      "ginger": 519,
      "##zz": 520,
      "##oa": 521,
      "cayenne_pepper": 522,
      "fresh_b": 523,
      "ko": 524,
      "##sher": 525,
      "##qu": 526,
      "##_stock": 527,
      "kosher": 528,
      "kosher_salt": 529,
      "ground_beef": 530,
      "##heat": 531,
      "##all": 532,
      "cumin": 533,
      "##oreg": 534,
      "##oregano": 535,
      "cr": 536,
      "cooked_": 537,
      "##ell_pepper": 538,
      "##red_pepper": 539,
      "heavy_cream": 540,
      "walnuts": 541,
      "##thyme": 542,
      "##alian": 543,
      "##crumbs": 544,
      "##isins": 545,
      "ground_cumin": 546,
      "red_b": 547,
      "powdered_sugar": 548,
      "black": 549,
      "##ish": 550,
      "##ella": 551,
      "##lemon": 552,
      "red_pepper": 553,
      "##est": 554,
      "##flour": 555,
      "cheddar_cheese": 556,
      "##ub": 557,
      "##_bread": 558,
      "ra": 559,
      "di": 560,
      "crush": 561,
      "bon": 562,
      "##wine_vinegar": 563,
      "##ocoa": 564,
      "##ts": 565,
      "##eless": 566,
      "boneless": 567,
      "ric": 568,
      "egg_w": 569,
      "##inach": 570,
      "##garine": 571,
      "egg_whit": 572,
      "cream_of": 573,
      "##_chicken_breasts": 574,
      "##allo": 575,
      "##eanut": 576,
      "##os": 577,
      "##anan": 578,
      "##orian": 579,
      "##oriander": 580,
      "margarine": 581,
      "fresh_lemon": 582,
      "##_brown_sugar": 583,
      "##ff": 584,
      "##_milk": 585,
      "##loves": 586,
      "##erry": 587,
      "whipp": 588,
      "##jon": 589,
      "##inea": 590,
      "dijon": 591,
      "dijon_mustard": 592,
      "##ineappl": 593,
      "co": 594,
      "fresh_lemon_juice": 595,
      "##ru": 596,
      "almon": 597,
      "ic": 598,
      "egg_y": 599,
      "egg_yol": 600,
      "##ark": 601,
      "##ash": 602,
      "##zzar": 603,
      "##zzarella": 604,
      "##ets": 605,
      "##zzarella_cheese": 606,
      "sesam": 607,
      "it": 608,
      "##ork": 609,
      "italian": 610,
      "##_corn": 611,
      "##mushrooms": 612,
      "ore": 613,
      "banan": 614,
      "##ed_milk": 615,
      "##ak": 616,
      "orange_": 617,
      "dark": 618,
      "fresh_cilantro": 619,
      "##ginger": 620,
      "fresh_basil": 621,
      "##rack": 622,
      "##ider": 623,
      "##a_cheese": 624,
      "mushrooms": 625,
      "mozzarella_cheese": 626,
      "##apen": 627,
      "dried_oregano": 628,
      "bas": 629,
      "##ou": 630,
      "zuc": 631,
      "##chini": 632,
      "zucchini": 633,
      "jal": 634,
      "jalapen": 635,
      "##_leaf": 636,
      "##ocolate": 637,
      "bread": 638,
      "raisins": 639,
      "##lives": 640,
      "##ortilla": 641,
      "tomato_sauce": 642,
      "cilantro": 643,
      "##_skin": 644,
      "cano": 645,
      "##la_oil": 646,
      "canola_oil": 647,
      "##gano": 648,
      "oregano": 649,
      "##les": 650,
      "chicken_stock": 651,
      "##emar": 652,
      "##emary": 653,
      "##_st": 654,
      "shallo": 655,
      "##less": 656,
      "boneless_skin": 657,
      "##less_chicken_breasts": 658,
      "boneless_skinless_chicken_breasts": 659,
      "##_potatoes": 660,
      "##redd": 661,
      "coconut": 662,
      "tomato_paste": 663,
      "red_onions": 664,
      "sc": 665,
      "##ing_cream": 666,
      "##_tomatoes": 667,
      "##ect": 668,
      "##wheat": 669,
      "##zest": 670,
      "##_chili": 671,
      "con": 672,
      "orange_juice": 673,
      "diced_tomatoes": 674,
      "##ats": 675,
      "##ocolate_c": 676,
      "crushed_": 677,
      "shredd": 678,
      "shredded_c": 679,
      "##int": 680,
      "##traw": 681,
      "##lu": 682,
      "##og": 683,
      "##_butter": 684,
      "##ang": 685,
      "tur": 686,
      "##den": 687,
      "##mp": 688,
      "##e_cheese": 689,
      "gra": 690,
      "apples": 691,
      "##_onion": 692,
      "basil": 693,
      "##_d": 694,
      "##allion": 695,
      "scallion": 696,
      "##ump": 697,
      "whole_wheat": 698,
      "lemons": 699,
      "cur": 700,
      "##almonds": 701,
      "##ened_c": 702,
      "peanut": 703,
      "##ea_salt": 704,
      "##ac": 705,
      "green_b": 706,
      "##ider_vinegar": 707,
      "ground_black_pepper": 708,
      "fresh_ginger": 709,
      "##urt": 710,
      "##ki": 711,
      "egg_whites": 712,
      "##mer": 713,
      "##ocolate_chips": 714,
      "##east": 715,
      "##ening": 716,
      "##etch": 717,
      "##etchup": 718,
      "buttermilk": 719,
      "##ortening": 720,
      "##_mix": 721,
      "##amic": 722,
      "##alsamic": 723,
      "##e_sugar": 724,
      "pork": 725,
      "rice_": 726,
      "cooking": 727,
      "##abb": 728,
      "scallions": 729,
      "##ros": 730,
      "##water": 731,
      "##alsamic_vinegar": 732,
      "pi": 733,
      "##ham": 734,
      "ketchup": 735,
      "ground_ginger": 736,
      "##meal": 737,
      "##_peas": 738,
      "##_olives": 739,
      "##liced_": 740,
      "lime_juice": 741,
      "##ogurt": 742,
      "##_j": 743,
      "##key": 744,
      "unsweet": 745,
      "##ress": 746,
      "##abbage": 747,
      "##ood": 748,
      "shredded_cheddar_cheese": 749,
      "balsamic_vinegar": 750,
      "##umpkin": 751,
      "vinegar": 752,
      "sliced_": 753,
      "##trawberries": 754,
      "egg_yolks": 755,
      "##oodles": 756,
      "curry": 757,
      "##ection": 758,
      "##ortillas": 759,
      "##ettuce": 760,
      "##ok": 761,
      "##meric": 762,
      "sea_salt": 763,
      "st": 764,
      "##ray": 765,
      "##_spray": 766,
      "##opp": 767,
      "dried_thyme": 768,
      "dried_b": 769,
      "##roc": 770,
      "cocoa": 771,
      "onion_powder": 772,
      "##rimp": 773,
      "##ake_": 774,
      "ham": 775,
      "##_ri": 776,
      "##e_syrup": 777,
      "##aus": 778,
      "##_n": 779,
      "##fection": 780,
      "##'_sugar": 781,
      "##ers'_sugar": 782,
      "confection": 783,
      "confectioners'_sugar": 784,
      "##hives": 785,
      "vegetable_": 786,
      "##_sh": 787,
      "bananas": 788,
      "##ti": 789,
      "chicken_breasts": 790,
      "whit": 791,
      "shallots": 792,
      "pla": 793,
      "col": 794,
      "plain": 795,
      "red_wine_vinegar": 796,
      "##rocco": 797,
      "##roccoli": 798,
      "whole_wheat_flour": 799,
      "whipping_cream": 800,
      "jalapeno": 801,
      "green_peppers": 802,
      "##oast": 803,
      "##ucum": 804,
      "##ucumber": 805,
      "pineappl": 806,
      "##_rice": 807,
      "##e_p": 808,
      "almond_": 809,
      "##red_pepper_flakes": 810,
      "##_chilies": 811,
      "##ala": 812,
      "can": 813,
      "white_sugar": 814,
      "bay_leaf": 815,
      "##_white_": 816,
      "dry_white_": 817,
      "dry_white_wine": 818,
      "light_brown_sugar": 819,
      "##_syrup": 820,
      "##_fill": 821,
      "thyme": 822,
      "cucumber": 823,
      "##nutmeg": 824,
      "dried_basil": 825,
      "fresh_ground_pepper": 826,
      "##_tortillas": 827,
      "##spice": 828,
      "shortening": 829,
      "##ausage": 830,
      "bay_leaves": 831,
      "##lor": 832,
      "##voc": 833,
      "##_fillets": 834,
      "white_pepper": 835,
      "avoc": 836,
      "avocad": 837,
      "pumpkin": 838,
      "ground_nutmeg": 839,
      "##rosemary": 840,
      "red_bell_peppers": 841,
      "##_yogurt": 842,
      "##_chocolate": 843,
      "celery_ri": 844,
      "lemon_": 845,
      "##ing_water": 846,
      "##e_seeds": 847,
      "##ss": 848,
      "curry_powder": 849,
      "crushed_red_pepper_flakes": 850,
      "##arp": 851,
      "##lower": 852,
      "##asta": 853,
      "dry_mustard": 854,
      "blu": 855,
      "boil": 856,
      "rom": 857,
      "##ure_": 858,
      "breadcrumbs": 859,
      "sesame_oil": 860,
      "##chicken": 861,
      "white_wine": 862,
      "boiling_water": 863,
      "##ott": 864,
      "##ric": 865,
      "##_h": 866,
      "##alsa": 867,
      "broccoli": 868,
      "##apl": 869,
      "cheese": 870,
      "##corn": 871,
      "##dens": 872,
      "##ed_p": 873,
      "##illon": 874,
      "##ouillon": 875,
      "##ew": 876,
      "salsa": 877,
      "##_noodles": 878,
      "##flower": 879,
      "##_pi": 880,
      "##ent": 881,
      "in": 882,
      "##oni": 883,
      "##stant": 884,
      "instant": 885,
      "##e_cream": 886,
      "##ressing": 887,
      "##leaves": 888,
      "##d_water": 889,
      "cold_water": 890,
      "##lim": 891,
      "red_bell_pepper": 892,
      "##_yeast": 893,
      "##tur": 894,
      "##_spinach": 895,
      "##_crack": 896,
      "cider_vinegar": 897,
      "##appl": 898,
      "black_beans": 899,
      "coriander": 900,
      "fet": 901,
      "seasoning": 902,
      "##orat": 903,
      "##e_leaves": 904,
      "nuts": 905,
      "garlic_salt": 906,
      "##_bouillon": 907,
      "##ranberries": 908,
      "red_onion": 909,
      "##het": 910,
      "##aghet": 911,
      "ev": 912,
      "##aporat": 913,
      "evaporat": 914,
      "ground_cloves": 915,
      "##aple_syrup": 916,
      "red_pepper_flakes": 917,
      "##aghetti": 918,
      "##berry": 919,
      "lean": 920,
      "##round_beef": 921,
      "##_ground_beef": 922,
      "lean_ground_beef": 923,
      "##quash": 924,
      "cherry": 925,
      "##co_sauce": 926,
      "##hip": 927,
      "##eberries": 928,
      "##ack": 929,
      "peanut_butter": 930,
      "##ney": 931,
      "green_pepper": 932,
      "##lime_juice": 933,
      "##_breadcrumbs": 934,
      "##apples": 935,
      "##by": 936,
      "##iss": 937,
      "ta": 938,
      "##garlic": 939,
      "mon": 940,
      "##terey": 941,
      "##_jack": 942,
      "monterey": 943,
      "##_jack_cheese": 944,
      "monterey_jack_cheese": 945,
      "##ubes": 946,
      "##ushroom_soup": 947,
      "spaghetti": 948,
      "##_cheddar_cheese": 949,
      "sharp": 950,
      "sharp_cheddar_cheese": 951,
      "##_ro": 952,
      "shrimp": 953,
      "##_chips": 954,
      "##erries": 955,
      "sw": 956,
      "evaporated_milk": 957,
      "cas": 958,
      "##orang": 959,
      "celery_ribs": 960,
      "strawberries": 961,
      "##_squash": 962,
      "fresh_lime_juice": 963,
      "##arb": 964,
      "fresh_thyme": 965,
      "##_mushroom_soup": 966,
      "##tar": 967,
      "turmeric": 968,
      "##oats": 969,
      "##mix": 970,
      "graham": 971,
      "##lass": 972,
      "##lasses": 973,
      "tab": 974,
      "##asco_sauce": 975,
      "tabasco_sauce": 976,
      "baby": 977,
      "feta_cheese": 978,
      "##par": 979,
      "lemon_zest": 980,
      "white_vinegar": 981,
      "chocolate_chips": 982,
      "##ed_oats": 983,
      "swiss": 984,
      "##ern": 985,
      "##m_milk": 986,
      "##kim_milk": 987,
      "hot_sauce": 988,
      "##dill": 989,
      "whole_milk": 990,
      "roma": 991,
      "unsweetened_c": 992,
      "##rin": 993,
      "green_bell_peppers": 994,
      "ca": 995,
      "warm": 996,
      "warm_water": 997,
      "almond_extract": 998,
      "##zo": 999,
      "##chili": 1000,
      "graham_crack": 1001,
      "##e_f": 1002,
      "##ed_cream": 1003,
      "##ll": 1004,
      "##dam": 1005,
      "##densed_milk": 1006,
      "##otato": 1007,
      "sesame_seeds": 1008,
      "##_mushrooms": 1009,
      "##ricot": 1010,
      "beef_broth": 1011,
      "apple_c": 1012,
      "pure_": 1013,
      "dill": 1014,
      "cann": 1015,
      "##_stick": 1016,
      "cooking_spray": 1017,
      "##els": 1018,
      "ki": 1019,
      "##_sausage": 1020,
      "##_coo": 1021,
      "##ened_": 1022,
      "black_olives": 1023,
      "##pl": 1024,
      "fl": 1025,
      "##ed_almonds": 1026,
      "fish": 1027,
      "##dney": 1028,
      "##dney_beans": 1029,
      "##_soy_sauce": 1030,
      "swiss_cheese": 1031,
      "sm": 1032,
      "##ock": 1033,
      "##loin": 1034,
      "##ineapple": 1035,
      "##inc": 1036,
      "skim_milk": 1037,
      "cucumbers": 1038,
      "ar": 1039,
      "##ruit": 1040,
      "##each": 1041,
      "##adish": 1042,
      "##gon": 1043,
      "cooked_chicken": 1044,
      "fresh_mushrooms": 1045,
      "italian_seasoning": 1046,
      "ground_tur": 1047,
      "pl": 1048,
      "##ood_": 1049,
      "flour_tortillas": 1050,
      "green_chilies": 1051,
      "##alad_": 1052,
      "maple_syrup": 1053,
      "##mal": 1054,
      "molasses": 1055,
      "##e_d": 1056,
      "##shmal": 1057,
      "##shmallow": 1058,
      "##read_": 1059,
      "dried_p": 1060,
      "##green": 1061,
      "cabbage": 1062,
      "sweetened_c": 1063,
      "almonds": 1064,
      "##eel": 1065,
      "##corns": 1066,
      "##damom": 1067,
      "seasoning_salt": 1068,
      "lee": 1069,
      "green_bell_pepper": 1070,
      "##ith": 1071,
      "##pping": 1072,
      "cinnamon_stick": 1073,
      "##_ra": 1074,
      "##oll": 1075,
      "cream_of_mushroom_soup": 1076,
      "ros": 1077,
      "fresh_rosemary": 1078,
      "dried_c": 1079,
      "lime": 1080,
      "dark_brown_sugar": 1081,
      "##agus": 1082,
      "sa": 1083,
      "sliced_mushrooms": 1084,
      "chives": 1085,
      "##ren": 1086,
      "an": 1087,
      "pre": 1088,
      "##pared_": 1089,
      "prepared_": 1090,
      "plum": 1091,
      "##off": 1092,
      "##e_salt": 1093,
      "ground_coriander": 1094,
      "roll": 1095,
      "##weet_chocolate": 1096,
      "##er_c": 1097,
      "hot_water": 1098,
      "##ake_mix": 1099,
      "##lettuce": 1100,
      "roast": 1101,
      "##dy": 1102,
      "spinach": 1103,
      "##ustard_": 1104,
      "cayenne": 1105,
      "all": 1106,
      "fresh_s": 1107,
      "##ango": 1108,
      "cloves": 1109,
      "##rind": 1110,
      "red_peppers": 1111,
      "##ondensed_milk": 1112,
      "sweetened_condensed_milk": 1113,
      "##rust": 1114,
      "plain_yogurt": 1115,
      "cherry_tomatoes": 1116,
      "##iv": 1117,
      "lettuce": 1118,
      "diced_": 1119,
      "##urg": 1120,
      "mix": 1121,
      "##di": 1122,
      "ice": 1123,
      "cap": 1124,
      "##ender": 1125,
      "mint": 1126,
      "##ich": 1127,
      "unsweetened_cocoa": 1128,
      "frozen_peas": 1129,
      "red_chili": 1130,
      "##uree": 1131,
      "##_pasta": 1132,
      "cre": 1133,
      "dried_parsley": 1134,
      "sweet_potatoes": 1135,
      "##mustard": 1136,
      "##_wine": 1137,
      "mango": 1138,
      "salmon": 1139,
      "non": 1140,
      "crack": 1141,
      "##meat": 1142,
      "pasta": 1143,
      "limes": 1144,
      "peach": 1145,
      "##ed_coconut": 1146,
      "##acar": 1147,
      "##_puree": 1148,
      "##root": 1149,
      "allspice": 1150,
      "##acaroni": 1151,
      "##nut": 1152,
      "##eanuts": 1153,
      "red_wine": 1154,
      "pine_": 1155,
      "grap": 1156,
      "pine_nuts": 1157,
      "minc": 1158,
      "##ragon": 1159,
      "cooked_rice": 1160,
      "orange_zest": 1161,
      "avocados": 1162,
      "yellow_onions": 1163,
      "##_corn_syrup": 1164,
      "rosemary": 1165,
      "##rab": 1166,
      "yellow_onion": 1167,
      "capers": 1168,
      "##potatoes": 1169,
      "taco": 1170,
      "##ni": 1171,
      "ricott": 1172,
      "cocoa_powder": 1173,
      "bell_peppers": 1174,
      "coconut_milk": 1175,
      "##_dressing": 1176,
      "##_whip": 1177,
      "##ennel": 1178,
      "##_tender": 1179,
      "plain_flour": 1180,
      "coars": 1181,
      "rolled_oats": 1182,
      "##eaks": 1183,
      "vanilla_": 1184,
      "egg_yolk": 1185,
      "##kern": 1186,
      "##topping": 1187,
      "ricotta_cheese": 1188,
      "peanut_oil": 1189,
      "##vanilla": 1190,
      "pure_vanilla": 1191,
      "pure_vanilla_extract": 1192,
      "##_whipp": 1193,
      "##color": 1194,
      "##ood_color": 1195,
      "##ood_coloring": 1196,
      "cornmeal": 1197,
      "##ough": 1198,
      "##er_crumbs": 1199,
      "green_beans": 1200,
      "fren": 1201,
      "french": 1202,
      "brown": 1203,
      "po": 1204,
      "hot_pepper": 1205,
      "##_chicken_soup": 1206,
      "cream_of_chicken_soup": 1207,
      "##ed_sp": 1208,
      "banana": 1209,
      "##ol_whip": 1210,
      "white_b": 1211,
      "cool_whip": 1212,
      "egg_white": 1213,
      "rice_vinegar": 1214,
      "##pineapple": 1215,
      "crushed_pineapple": 1216,
      "##vor": 1217,
      "##eer": 1218,
      "white_wine_vinegar": 1219,
      "orange": 1220,
      "##em": 1221,
      "rice": 1222,
      "chicken_bouillon": 1223,
      "flat": 1224,
      "##ice_cream": 1225,
      "##shmallows": 1226,
      "asp": 1227,
      "##aragus": 1228,
      "asparagus": 1229,
      "toast": 1230,
      "icing": 1231,
      "chocolat": 1232,
      "fennel": 1233,
      "##uff": 1234,
      "##a_sauce": 1235,
      "ras": 1236,
      "rasp": 1237,
      "##_pastry": 1238,
      "##dg": 1239,
      "potato": 1240,
      "##alves": 1241,
      "##_halves": 1242,
      "vegetable_b": 1243,
      "##burg": 1244,
      "##uss": 1245,
      "taco_seasoning": 1246,
      "barb": 1247,
      "##ecu": 1248,
      "barbecu": 1249,
      "caster": 1250,
      "act": 1251,
      "##ry_yeast": 1252,
      "##e_dry_yeast": 1253,
      "##ive_dry_yeast": 1254,
      "active_dry_yeast": 1255,
      "mini": 1256,
      "##lam": 1257,
      "caster_sugar": 1258,
      "vegetable_broth": 1259,
      "whipped_cream": 1260,
      "##_leaf_parsley": 1261,
      "flat_leaf_parsley": 1262,
      "##_apples": 1263,
      "##y_p": 1264,
      "##king_spray": 1265,
      "##_cooking_spray": 1266,
      "##burger": 1267,
      "##allspice": 1268,
      "##ors": 1269,
      "##_flor": 1270,
      "##_florets": 1271,
      "##_sherry": 1272,
      "hamburger": 1273,
      "fresh_basil_leaves": 1274,
      "barbecue_sauce": 1275,
      "mustard_": 1276,
      "##gel": 1277,
      "eggpl": 1278,
      "eggplant": 1279,
      "turkey": 1280,
      "##tich": 1281,
      "##tichok": 1282,
      "kal": 1283,
      "##eradish": 1284,
      "##e_w": 1285,
      "##orseradish": 1286,
      "##uli": 1287,
      "fresh_spinach": 1288,
      "cauli": 1289,
      "cauliflower": 1290,
      "gol": 1291,
      "golden": 1292,
      "pan": 1293,
      "red_potatoes": 1294,
      "unsweetened_": 1295,
      "##atin": 1296,
      "apple_cider_vinegar": 1297,
      "cooking_oil": 1298,
      "##eat": 1299,
      "avocado": 1300,
      "icing_sugar": 1301,
      "fresh_chives": 1302,
      "##ring": 1303,
      "gingerroot": 1304,
      "fresh_dill": 1305,
      "stew": 1306,
      "##_steaks": 1307,
      "##rabmeat": 1308,
      "oat": 1309,
      "##ton": 1310,
      "##_orang": 1311,
      "##eces": 1312,
      "##_cho": 1313,
      "plum_tomatoes": 1314,
      "##ed_garlic": 1315,
      "light_corn_syrup": 1316,
      "jalapenos": 1317,
      "##arts": 1318,
      "##lavor": 1319,
      "ol": 1320,
      "##laked_coconut": 1321,
      "pe": 1322,
      "##red_peppers": 1323,
      "jalapeno_peppers": 1324,
      "##eanut_butter": 1325,
      "##y_peanut_butter": 1326,
      "blueberries": 1327,
      "##e_sp": 1328,
      "##cent": 1329,
      "##mint": 1330,
      "mustard": 1331,
      "##liver": 1332,
      "##lls": 1333,
      "sem": 1334,
      "sliver": 1335,
      "slivered_almonds": 1336,
      "##artar": 1337,
      "chick": 1338,
      "chickp": 1339,
      "##ino": 1340,
      "bread_": 1341,
      "sweet_p": 1342,
      "fish_sauce": 1343,
      "##e_crust": 1344,
      "sliced_almonds": 1345,
      "sherry": 1346,
      "ground_turkey": 1347,
      "pineapple_juice": 1348,
      "##stock": 1349,
      "wheat": 1350,
      "chopp": 1351,
      "##eed": 1352,
      "##arin": 1353,
      "dried_cranberries": 1354,
      "kidney_beans": 1355,
      "frozen_corn": 1356,
      "##_tartar": 1357,
      "cream_of_tartar": 1358,
      "of": 1359,
      "##resh_m": 1360,
      "##_fresh_m": 1361,
      "of_fresh_m": 1362,
      "of_fresh_mint": 1363,
      "vegetable_stock": 1364,
      "soy": 1365,
      "##av": 1366,
      "##randy": 1367,
      "##ked_b": 1368,
      "##uck": 1369,
      "##eal": 1370,
      "##_coff": 1371,
      "##ettuc": 1372,
      "liqu": 1373,
      "chopped_tomatoes": 1374,
      "applesauce": 1375,
      "##erm": 1376,
      "qu": 1377,
      "leeks": 1378,
      "sun": 1379,
      "sunflower": 1380,
      "##ori": 1381,
      "cumin_seeds": 1382,
      "ground_allspice": 1383,
      "##ates": 1384,
      "##edg": 1385,
      "chickpeas": 1386,
      "##_tenderloin": 1387,
      "celery_seeds": 1388,
      "##jor": 1389,
      "##joram": 1390,
      "crushed_tomatoes": 1391,
      "shallot": 1392,
      "##ia": 1393,
      "##chocolate": 1394,
      "##gs": 1395,
      "##hearts": 1396,
      "beer": 1397,
      "oranges": 1398,
      "old_": 1399,
      "ice_c": 1400,
      "##acon": 1401,
      "dry_sherry": 1402,
      "##tichoke_": 1403,
      "heavy_whipp": 1404,
      "heavy_whipping_cream": 1405,
      "##lices": 1406,
      "hot_pepper_sauce": 1407,
      "##y_s": 1408,
      "unsweetened_cocoa_powder": 1409,
      "ice_cubes": 1410,
      "##ils": 1411,
      "##routs": 1412,
      "##_sprouts": 1413,
      "yeast": 1414,
      "si": 1415,
      "crem": 1416,
      "##tichoke_hearts": 1417,
      "mash": 1418,
      "##od": 1419,
      "##ila": 1420,
      "blue_cheese": 1421,
      "##one_cheese": 1422,
      "ap": 1423,
      "apricot": 1424,
      "bread_flour": 1425,
      "##lax": 1426,
      "##edges": 1427,
      "dry_": 1428,
      "liqui": 1429,
      "##_gra": 1430,
      "semis": 1431,
      "corn_tortillas": 1432,
      "##ow_m": 1433,
      "##_chocolate_chips": 1434,
      "romaine_": 1435,
      "##anch": 1436,
      "##ny_s": 1437,
      "##mith": 1438,
      "granny_s": 1439,
      "##mith_apples": 1440,
      "granny_smith_apples": 1441,
      "salad_": 1442,
      "whole_c": 1443,
      "##_cabbage": 1444,
      "##and": 1445,
      "light_cream": 1446,
      "##ed_spinach": 1447,
      "##_car": 1448,
      "##estnuts": 1449,
      "brandy": 1450,
      "##ys": 1451,
      "##_chopp": 1452,
      "frozen_chopp": 1453,
      "frozen_chopped_spinach": 1454,
      "ground_p": 1455,
      "dried_rosemary": 1456,
      "pizz": 1457,
      "##ed_ginger": 1458,
      "coarse_salt": 1459,
      "popp": 1460,
      "##ron": 1461,
      "broccoli_florets": 1462,
      "ground_pepper": 1463,
      "##ickl": 1464,
      "oys": 1465,
      "graham_cracker_crumbs": 1466,
      "##reser": 1467,
      "##uns": 1468,
      "##_cubes": 1469,
      "##ed_potatoes": 1470,
      "rum": 1471,
      "##ef": 1472,
      "##ult": 1473,
      "liquid_": 1474,
      "prepared_mustard": 1475,
      "##lueberries": 1476,
      "spring": 1477,
      "##ata": 1478,
      "toasted_s": 1479,
      "##_rum": 1480,
      "##gu": 1481,
      "cinnamon_sticks": 1482,
      "white_onions": 1483,
      "##_sub": 1484,
      "##ute": 1485,
      "##stit": 1486,
      "##_substit": 1487,
      "##_substitute": 1488,
      "##_raisins": 1489,
      "##_weed": 1490,
      "##stick": 1491,
      "##e_pasta": 1492,
      "gre": 1493,
      "cake_": 1494,
      "vanilla_ice_cream": 1495,
      "cake_flour": 1496,
      "beef_bouillon": 1497,
      "roasted_": 1498,
      "##itters": 1499,
      "white_bread": 1500,
      "##_chestnuts": 1501,
      "##rots": 1502,
      "french_bread": 1503,
      "cooked_b": 1504,
      "pineapple_": 1505,
      "peaches": 1506,
      "##odka": 1507,
      "whole_cloves": 1508,
      "salmon_fillets": 1509,
      "roma_tomatoes": 1510,
      "##_pieces": 1511,
      "basil_leaves": 1512,
      "apple": 1513,
      "##ade": 1514,
      "##ed_flour": 1515,
      "fresh_p": 1516,
      "##asala": 1517,
      "semisweet_chocolate": 1518,
      "red_c": 1519,
      "apple_juice": 1520,
      "saff": 1521,
      "##green_chilies": 1522,
      "##reserves": 1523,
      "##rov": 1524,
      "##seeds": 1525,
      "pie_crust": 1526,
      "smok": 1527,
      "smo": 1528,
      "smoked_": 1529,
      "cott": 1530,
      "##age_cheese": 1531,
      "cottage_cheese": 1532,
      "beef_stock": 1533,
      "en": 1534,
      "penn": 1535,
      "##ek": 1536,
      "##ate": 1537,
      "ho": 1538,
      "##_masala": 1539,
      "cardamom": 1540,
      "##ortilla_chips": 1541,
      "##entils": 1542,
      "fresh_strawberries": 1543,
      "##_chops": 1544,
      "##gra": 1545,
      "##ellini": 1546,
      "spaghetti_sauce": 1547,
      "##ano_cheese": 1548,
      "##ris": 1549,
      "##fu": 1550,
      "##amata": 1551,
      "##red_wine": 1552,
      "kalamata": 1553,
      "dry_red_wine": 1554,
      "kalamata_olives": 1555,
      "el": 1556,
      "##dressing": 1557,
      "ground_pork": 1558,
      "mixed_": 1559,
      "romaine_lettuce": 1560,
      "##af": 1561,
      "bitters": 1562,
      "##italian": 1563,
      "##_peel": 1564,
      "sweet_onions": 1565,
      "##una": 1566,
      "##_buns": 1567,
      "toasted_sesam": 1568,
      "##bow_m": 1569,
      "pork_tenderloin": 1570,
      "elbow_m": 1571,
      "elbow_macaroni": 1572,
      "##hew": 1573,
      "##fat": 1574,
      "##_jam": 1575,
      "nonfat": 1576,
      "chili_sauce": 1577,
      "peanuts": 1578,
      "diced_onions": 1579,
      "marin": 1580,
      "dates": 1581,
      "vodka": 1582,
      "##ranul": 1583,
      "##ranules": 1584,
      "##tarragon": 1585,
      "garam": 1586,
      "garam_masala": 1587,
      "##its": 1588,
      "##chino": 1589,
      "##aschino": 1590,
      "maraschino": 1591,
      "maraschino_ch": 1592,
      "##egetables": 1593,
      "sherry_wine": 1594,
      "##apricot": 1595,
      "dried_apricot": 1596,
      "dried_apricots": 1597,
      "season": 1598,
      "##greens": 1599,
      "##beans": 1600,
      "roasted_red_peppers": 1601,
      "tortilla_chips": 1602,
      "fresh_oregano": 1603,
      "oatmeal": 1604,
      "stewed_tomatoes": 1605,
      "##_preserves": 1606,
      "golden_raisins": 1607,
      "lemon_peel": 1608,
      "fresh_coriander": 1609,
      "##_dough": 1610,
      "##ex": 1611,
      "##_cake_mix": 1612,
      "sweet_": 1613,
      "jalapeno_pepper": 1614,
      "chicken_breast": 1615,
      "pin": 1616,
      "##e_fill": 1617,
      "##ed_topping": 1618,
      "##_roast": 1619,
      "##me_leaves": 1620,
      "##hyme_leaves": 1621,
      "##_cloves": 1622,
      "minced_garlic": 1623,
      "minced_garlic_cloves": 1624,
      "yellow_b": 1625,
      "ground_red_pepper": 1626,
      "orange_rind": 1627,
      "pit": 1628,
      "##ettuce_leaves": 1629,
      "##eur": 1630,
      "##oat": 1631,
      "##_to": 1632,
      "##_nuts": 1633,
      "boneless_chicken_breasts": 1634,
      "butternut": 1635,
      "butternut_squash": 1636,
      "creamy_peanut_butter": 1637,
      "##_spri": 1638,
      "instant_coff": 1639,
      "##utton": 1640,
      "##e_spice": 1641,
      "flaked_coconut": 1642,
      "##zel": 1643,
      "fat": 1644,
      "baby_car": 1645,
      "baby_carrots": 1646,
      "oats": 1647,
      "vel": 1648,
      "##veet": 1649,
      "velveet": 1650,
      "velveeta_cheese": 1651,
      "dry_breadcrumbs": 1652,
      "##spberries": 1653,
      "##_meat": 1654,
      "spring_onions": 1655,
      "green_onion": 1656,
      "goat": 1657,
      "button": 1658,
      "caram": 1659,
      "##to_beans": 1660,
      "pinto_beans": 1661,
      "button_mushrooms": 1662,
      "lime_": 1663,
      "##_lettuce": 1664,
      "##erbs": 1665,
      "##rate": 1666,
      "##oncent": 1667,
      "##oncentrate": 1668,
      "celery_salt": 1669,
      "##e_concentrate": 1670,
      "##aw": 1671,
      "tuna": 1672,
      "artichoke_hearts": 1673,
      "crabmeat": 1674,
      "pork_chops": 1675,
      "##y_seeds": 1676,
      "salt_and_black_pepper": 1677,
      "tomato_puree": 1678,
      "poppy_seeds": 1679,
      "russ": 1680,
      "##et_potatoes": 1681,
      "russet_potatoes": 1682,
      "pumpkin_pi": 1683,
      "##isin_sauce": 1684,
      "hoisin_sauce": 1685,
      "saffron": 1686,
      "##enc": 1687,
      "##e_filling": 1688,
      "##ence": 1689,
      "##_kern": 1690,
      "##_kernels": 1691,
      "##cho": 1692,
      "##kra": 1693,
      "raw": 1694,
      "##lax_seeds": 1695,
      "goat_cheese": 1696,
      "fennel_seeds": 1697,
      "bis": 1698,
      "oyster": 1699,
      "##ay_seeds": 1700,
      "caraw": 1701,
      "tomato_juice": 1702,
      "caraway_seeds": 1703,
      "##_brown": 1704,
      "bittersweet_chocolate": 1705,
      "##_sprigs": 1706,
      "low": 1707,
      "##ings": 1708,
      "##um_soy_sauce": 1709,
      "##_sodi": 1710,
      "low_sodi": 1711,
      "low_sodium_soy_sauce": 1712,
      "mex": 1713,
      "mexic": 1714,
      "##ranberry": 1715,
      "##nips": 1716,
      "cashew": 1717,
      "##uff_pastry": 1718,
      "yellow_cake_mix": 1719,
      "##vegetables": 1720,
      "##ild_": 1721,
      "pros": 1722,
      "##ed_black_pepper": 1723,
      "cracked_black_pepper": 1724,
      "mand": 1725,
      "peas": 1726,
      "##arin_orang": 1727,
      "mandarin_orang": 1728,
      "sel": 1729,
      "##_fre": 1730,
      "##ette": 1731,
      "maraschino_cherries": 1732,
      "bell_pepper": 1733,
      "nonfat_milk": 1734,
      "##ci": 1735,
      "dried_onion": 1736,
      "dried_dill": 1737,
      "##utto": 1738,
      "black_peppercorns": 1739,
      "ancho": 1740,
      "prosci": 1741,
      "prosciutto": 1742,
      "##liqu": 1743,
      "smoked_s": 1744,
      "##liqueur": 1745,
      "yellow_corn": 1746,
      "yellow_cornmeal": 1747,
      "gru": 1748,
      "sage": 1749,
      "##yer": 1750,
      "corn_syrup": 1751,
      "gruyer": 1752,
      "pineapple": 1753,
      "##flavor": 1754,
      "##agna": 1755,
      "##esto": 1756,
      "pumpkin_pie_spice": 1757,
      "frozen_spinach": 1758,
      "##sage": 1759,
      "##our": 1760,
      "##applesauce": 1761,
      "unsweetened_applesauce": 1762,
      "straw": 1763,
      "unb": 1764,
      "##gelatin": 1765,
      "white_onion": 1766,
      "##eak": 1767,
      "##_shrimp": 1768,
      "##amb": 1769,
      "port": 1770,
      "##juic": 1771,
      "##ature_": 1772,
      "raspberry": 1773,
      "miniature_": 1774,
      "sunflower_seeds": 1775,
      "##azel": 1776,
      "mangoes": 1777,
      "liquid_s": 1778,
      "las": 1779,
      "prov": 1780,
      "##olone_cheese": 1781,
      "lasagna": 1782,
      "provolone_cheese": 1783,
      "mac": 1784,
      "cooked_ham": 1785,
      "shredded_coconut": 1786,
      "mustard_seeds": 1787,
      "rice_wine_vinegar": 1788,
      "##el_corn": 1789,
      "##_green": 1790,
      "whole_kern": 1791,
      "poult": 1792,
      "whole_kernel_corn": 1793,
      "poultry": 1794,
      "##kidney_beans": 1795,
      "##_soup_mix": 1796,
      "tar": 1797,
      "##kies": 1798,
      "##high": 1799,
      "##_thigh": 1800,
      "nonstick": 1801,
      "nonstick_cooking_spray": 1802,
      "##mok": 1803,
      "liquid_smok": 1804,
      "##udd": 1805,
      "##orange_juice": 1806,
      "##udding": 1807,
      "bean": 1808,
      "##ardamom": 1809,
      "ground_cardamom": 1810,
      "fat_fre": 1811,
      "poultry_seasoning": 1812,
      "fresh_garlic": 1813,
      "pepperoni": 1814,
      "pecan_halves": 1815,
      "##ko": 1816,
      "##_thighs": 1817,
      "grape_": 1818,
      "fresh_blueberries": 1819,
      "##ing_flour": 1820,
      "self": 1821,
      "th": 1822,
      "##white_": 1823,
      "olives": 1824,
      "strawberry": 1825,
      "ka": 1826,
      "##e_b": 1827,
      "##e_water": 1828,
      "pickl": 1829,
      "raspberries": 1830,
      "panko": 1831,
      "panko_breadcrumbs": 1832,
      "tam": 1833,
      "yogurt": 1834,
      "sweet_onion": 1835,
      "cornflour": 1836,
      "lettuce_leaves": 1837,
      "ranch": 1838,
      "ranch_dressing": 1839,
      "horseradish": 1840,
      "chicken_thighs": 1841,
      "##ig": 1842,
      "##_wra": 1843,
      "water_chestnuts": 1844,
      "light_soy_sauce": 1845,
      "dill_weed": 1846,
      "##ereal": 1847,
      "fresh_orange_juice": 1848,
      "##ake": 1849,
      "eggplants": 1850,
      "romano_cheese": 1851,
      "##ines": 1852,
      "cannellini": 1853,
      "##do": 1854,
      "##_with": 1855,
      "diced_green_chilies": 1856,
      "lasagna_noodles": 1857,
      "pumpkin_puree": 1858,
      "lemon_rind": 1859,
      "##horseradish": 1860,
      "##eed_": 1861,
      "##elly": 1862,
      "baking_potatoes": 1863,
      "##mpl": 1864,
      "simpl": 1865,
      "tarragon": 1866,
      "sour": 1867,
      "egg_noodles": 1868,
      "cranberry": 1869,
      "##allops": 1870,
      "brown_rice": 1871,
      "lemon_pepper": 1872,
      "##shortening": 1873,
      "##ingu": 1874,
      "fresh_mint": 1875,
      "liquid_smoke": 1876,
      "fresh_mint_leaves": 1877,
      "##unks": 1878,
      "##chunks": 1879,
      "fresh_breadcrumbs": 1880,
      "oyster_sauce": 1881,
      "ser": 1882,
      "serran": 1883,
      "##powder": 1884,
      "bour": 1885,
      "green_olives": 1886,
      "pears": 1887,
      "##arley": 1888,
      "##ons": 1889,
      "##ong": 1890,
      "pineapple_chunks": 1891,
      "##ed_peanuts": 1892,
      "tabl": 1893,
      "##jun": 1894,
      "cajun": 1895,
      "wheat_g": 1896,
      "cajun_seasoning": 1897,
      "dark_chocolate": 1898,
      "greek": 1899,
      "dark_rum": 1900,
      "##bon": 1901,
      "ground_turmeric": 1902,
      "te": 1903,
      "prepared_horseradish": 1904,
      "leek": 1905,
      "##gula": 1906,
      "cannellini_beans": 1907,
      "serrano": 1908,
      "apple_cider": 1909,
      "celery_rib": 1910,
      "cl": 1911,
      "hamburger_buns": 1912,
      "grape_tomatoes": 1913,
      "##marshmallows": 1914,
      "miniature_marshmallows": 1915,
      "##len": 1916,
      "vegetable_shortening": 1917,
      "peppercorns": 1918,
      "##ube": 1919,
      "mint_leaves": 1920,
      "##ed_gelatin": 1921,
      "##chocolate_chips": 1922,
      "unflavor": 1923,
      "unflavored_gelatin": 1924,
      "pie_crusts": 1925,
      "condens": 1926,
      "##mi": 1927,
      "egg_substitute": 1928,
      "corn_flakes": 1929,
      "coff": 1930,
      "##_rolls": 1931,
      "cats": 1932,
      "spic": 1933,
      "catsup": 1934,
      "lingu": 1935,
      "##azelnuts": 1936,
      "linguine": 1937,
      "yellow_squash": 1938,
      "##_pudding": 1939,
      "unsweetened_chocolate": 1940,
      "##elatin": 1941,
      "##_tofu": 1942,
      "##_she": 1943,
      "##herbs": 1944,
      "##ft": 1945,
      "cranberries": 1946,
      "##marjoram": 1947,
      "##leach": 1948,
      "sweetened_": 1949,
      "##food_coloring": 1950,
      "##_granules": 1951,
      "unbleach": 1952,
      "table_salt": 1953,
      "##_cube": 1954,
      "##ectar": 1955,
      "##e_pi": 1956,
      "wheat_germ": 1957,
      "##_chil": 1958,
      "greek_yogurt": 1959,
      "long": 1960,
      "lemon_w": 1961,
      "red_kidney_beans": 1962,
      "walnut": 1963,
      "pars": 1964,
      "##elish": 1965,
      "##lish": 1966,
      "lime_zest": 1967,
      "bourbon": 1968,
      "##risp": 1969,
      "coriander_seeds": 1970,
      "##juice_concentrate": 1971,
      "##e_powder": 1972,
      "##sc": 1973,
      "##fash": 1974,
      "##ioned_oats": 1975,
      "old_fash": 1976,
      "old_fashioned_oats": 1977,
      "lamb": 1978,
      "##ussels": 1979,
      "##ard": 1980,
      "penne_pasta": 1981,
      "##bo": 1982,
      "bean_sprouts": 1983,
      "cashews": 1984,
      "americ": 1985,
      "parsley_flakes": 1986,
      "mashed_potatoes": 1987,
      "american_cheese": 1988,
      "gruyere_cheese": 1989,
      "beet": 1990,
      "##_slices": 1991,
      "panc": 1992,
      "##ban": 1993,
      "##alade": 1994,
      "garban": 1995,
      "##armalade": 1996,
      "##zo_beans": 1997,
      "garbanzo_beans": 1998,
      "##in_rice": 1999,
      "##_grain_rice": 2000,
      "long_grain_rice": 2001,
      "mandarin_oranges": 2002,
      "##_mayonnaise": 2003,
      "cilantro_leaves": 2004,
      "mas": 2005,
      "angel": 2006,
      "##thyme_leaves": 2007,
      "fresh_thyme_leaves": 2008,
      "##rants": 2009,
      "italian_sausage": 2010,
      "fresh_parsley_leaves": 2011,
      "pear": 2012,
      "sn": 2013,
      "##ini_mushrooms": 2014,
      "white_rice": 2015,
      "snow": 2016,
      "lemon_wedges": 2017,
      "##otch": 2018,
      "##_wings": 2019,
      "candi": 2020,
      "ref": 2021,
      "cream_of_c": 2022,
      "mexican": 2023,
      "##cl": 2024,
      "red_food_coloring": 2025,
      "soymilk": 2026,
      "salad_oil": 2027,
      "pr": 2028,
      "##chila": 2029,
      "white_c": 2030,
      "##da_sauce": 2031,
      "##chilada_sauce": 2032,
      "macaroni": 2033,
      "light_so": 2034,
      "as": 2035,
      "##uer": 2036,
      "green_cabbage": 2037,
      "sauer": 2038,
      "##kraut": 2039,
      "sauerkraut": 2040,
      "##ee_": 2041,
      "##ento": 2042,
      "##turkey": 2043,
      "##dough": 2044,
      "##paprika": 2045,
      "##ari": 2046,
      "##raspberries": 2047,
      "fresh_raspberries": 2048,
      "smoked_paprika": 2049,
      "green_chili": 2050,
      "##cherries": 2051,
      "italian_s": 2052,
      "marjoram": 2053,
      "##ickles": 2054,
      "##eri": 2055,
      "fresh_tomatoes": 2056,
      "##cous": 2057,
      "##uscous": 2058,
      "couscous": 2059,
      "##ed_pumpkin": 2060,
      "canned_pumpkin": 2061,
      "pesto": 2062,
      "pesto_sauce": 2063,
      "##_food_coloring": 2064,
      "chicken_wings": 2065,
      "fresh_cranberries": 2066,
      "pimi": 2067,
      "refried_": 2068,
      "pimiento": 2069,
      "mustard_powder": 2070,
      "##essence": 2071,
      "##risco": 2072,
      "##peel": 2073,
      "##fruit": 2074,
      "##_oats": 2075,
      "##inoa": 2076,
      "white_flour": 2077,
      "##resso": 2078,
      "##_cookies": 2079,
      "radish": 2080,
      "yellow_mustard": 2081,
      "##hini": 2082,
      "tahini": 2083,
      "##bay": 2084,
      "old_bay": 2085,
      "old_bay_seasoning": 2086,
      "clam": 2087,
      "steak": 2088,
      "##e_slices": 2089,
      "white_chocolate": 2090,
      "##e_so": 2091,
      "##quila": 2092,
      "tequila": 2093,
      "orange_peel": 2094,
      "light_sour_cream": 2095,
      "##_topping": 2096,
      "##itake_": 2097,
      "##itake_mushrooms": 2098,
      "caramel": 2099,
      "dried_onion_flakes": 2100,
      "##_sho": 2101,
      "##hiitake_mushrooms": 2102,
      "##marmalade": 2103,
      "##_bean": 2104,
      "##_mar": 2105,
      "tomato_soup": 2106,
      "orange_marmalade": 2107,
      "##rout": 2108,
      "pizza": 2109,
      "##ash_brown": 2110,
      "green_chili_peppers": 2111,
      "##relish": 2112,
      "##ies": 2113,
      "##irloin": 2114,
      "##lamb": 2115,
      "refried_beans": 2116,
      "to": 2117,
      "##stac": 2118,
      "pistac": 2119,
      "pistachi": 2120,
      "##_waf": 2121,
      "aru": 2122,
      "##ank": 2123,
      "white_chocolate_chips": 2124,
      "arugula": 2125,
      "lime_w": 2126,
      "pita": 2127,
      "fruit": 2128,
      "taco_seasoning_mix": 2129,
      "fresh_sage": 2130,
      "snow_peas": 2131,
      "radishes": 2132,
      "##_bran": 2133,
      "##bl": 2134,
      "##_crabmeat": 2135,
      "light_mayonnaise": 2136,
      "##_pie_filling": 2137,
      "ground_ch": 2138,
      "ground_chuck": 2139,
      "hazelnuts": 2140,
      "##ed_corn": 2141,
      "dry_yeast": 2142,
      "whole_tomatoes": 2143,
      "fresh_cilantro_leaves": 2144,
      "##glish": 2145,
      "english": 2146,
      "##lentils": 2147,
      "##berg": 2148,
      "pobl": 2149,
      "poblano": 2150,
      "chicken_bouillon_cubes": 2151,
      "vanilla_essence": 2152,
      "whipped_topping": 2153,
      "##ods": 2154,
      "##e_o": 2155,
      "lemongra": 2156,
      "lemongrass": 2157,
      "puff_pastry": 2158,
      "anchovy": 2159,
      "##aki": 2160,
      "sea": 2161,
      "meat": 2162,
      "amar": 2163,
      "##carp": 2164,
      "mascarp": 2165,
      "##ati": 2166,
      "ground_f": 2167,
      "##_fruit": 2168,
      "##adam": 2169,
      "turmeric_powder": 2170,
      "##o_cheese": 2171,
      "##_sesam": 2172,
      "##_crackers": 2173,
      "red_chili_powder": 2174,
      "##egg": 2175,
      "corn_kernels": 2176,
      "pizza_sauce": 2177,
      "cooked_bacon": 2178,
      "##mati": 2179,
      "basmati": 2180,
      "sweet_paprika": 2181,
      "basmati_rice": 2182,
      "##ta": 2183,
      "##wi": 2184,
      "dried_sage": 2185,
      "##ine_sugar": 2186,
      "ice_water": 2187,
      "fir": 2188,
      "mi": 2189,
      "##m_tofu": 2190,
      "firm_tofu": 2191,
      "##yaki": 2192,
      "teri": 2193,
      "macadam": 2194,
      "teriyaki": 2195,
      "##age_leaves": 2196,
      "##e_fra": 2197,
      "##abella": 2198,
      "portabella": 2199,
      "##reen_beans": 2200,
      "fresh_green_beans": 2201,
      "frozen_b": 2202,
      "parsnips": 2203,
      "dried_marjoram": 2204,
      "quinoa": 2205,
      "lime_wedges": 2206,
      "chocolate": 2207,
      "##_pods": 2208,
      "buttersc": 2209,
      "marshmallows": 2210,
      "italian_dressing": 2211,
      "butterscotch": 2212,
      "##uper": 2213,
      "sausage": 2214,
      "new": 2215,
      "flank": 2216,
      "rh": 2217,
      "##racl": 2218,
      "##ubarb": 2219,
      "creol": 2220,
      "##e_whip": 2221,
      "miracl": 2222,
      "rhubarb": 2223,
      "miracle_whip": 2224,
      "new_potatoes": 2225,
      "##id": 2226,
      "##ed_vegetables": 2227,
      "yellow_bell_pepper": 2228,
      "##_star": 2229,
      "chocolate_syrup": 2230,
      "##ising_flour": 2231,
      "##_raising_flour": 2232,
      "self_raising_flour": 2233,
      "##y_potatoes": 2234,
      "simply_potatoes": 2235,
      "nut": 2236,
      "##le_cream": 2237,
      "##elon": 2238,
      "##ick_oats": 2239,
      "quick_oats": 2240,
      "macadamia": 2241,
      "##iche": 2242,
      "creme_fra": 2243,
      "creme_fraiche": 2244,
      "##ara_sauce": 2245,
      "marinara_sauce": 2246,
      "rot": 2247,
      "iceberg": 2248,
      "iceberg_lettuce": 2249,
      "##lavoring": 2250,
      "frozen_mix": 2251,
      "frozen_mixed_vegetables": 2252,
      "frozen_green": 2253,
      "wild_": 2254,
      "##hee": 2255,
      "fresh_tarragon": 2256,
      "##ash_browns": 2257,
      "tortillas": 2258,
      "##flaked_coconut": 2259,
      "##_with_juice": 2260,
      "sweetened_flaked_coconut": 2261,
      "##e_sea_salt": 2262,
      "ag": 2263,
      "br": 2264,
      "##ai": 2265,
      "coconut_oil": 2266,
      "or": 2267,
      "milk_chocolate_chips": 2268,
      "##zo_pasta": 2269,
      "orzo_pasta": 2270,
      "hot_d": 2271,
      "hot_dog": 2272,
      "##_th": 2273,
      "toasted_sesame_seeds": 2274,
      "toasted_sesame_oil": 2275,
      "##_spinach_leaves": 2276,
      "baby_spinach_leaves": 2277,
      "pasta_sauce": 2278,
      "crisco": 2279,
      "kiwi": 2280,
      "##sting": 2281,
      "red_cabbage": 2282,
      "hot_": 2283,
      "##erb": 2284,
      "lemon_extract": 2285,
      "sunflower_oil": 2286,
      "vegetable_oil_cooking_spray": 2287,
      "##cu": 2288,
      "macadamia_nuts": 2289,
      "##noodles": 2290,
      "sift": 2291,
      "sifted_flour": 2292,
      "vegetables": 2293,
      "##rit": 2294,
      "super": 2295,
      "##fine_sugar": 2296,
      "superfine_sugar": 2297,
      "##_chees": 2298,
      "portabella_mushrooms": 2299,
      "unbleached_flour": 2300,
      "chines": 2301,
      "##anilla_pudding": 2302,
      "##_vanilla_pudding": 2303,
      "instant_vanilla_pudding": 2304,
      "chees": 2305,
      "##maple_syrup": 2306,
      "##_bacon": 2307,
      "corn_oil": 2308,
      "pure_maple_syrup": 2309,
      "vanilla_waf": 2310,
      "##ots": 2311,
      "##alad_dressing": 2312,
      "italian_salad_dressing": 2313,
      "flank_steaks": 2314,
      "##oconut_milk": 2315,
      "dried_tarragon": 2316,
      "##_beef": 2317,
      "##_bul": 2318,
      "onion_soup_mix": 2319,
      "chocolate_": 2320,
      "fennel_bul": 2321,
      "##hern": 2322,
      "##ional": 2323,
      "##o_rice": 2324,
      "##bori": 2325,
      "graham_crackers": 2326,
      "arbori": 2327,
      "arborio_rice": 2328,
      "cumin_powder": 2329,
      "teriyaki_sauce": 2330,
      "sourdough": 2331,
      "lentils": 2332,
      "##ed_banan": 2333,
      "mashed_banan": 2334,
      "phy": 2335,
      "##llo": 2336,
      "alf": 2337,
      "phyllo": 2338,
      "##routons": 2339,
      "##nap": 2340,
      "##ip": 2341,
      "##law": 2342,
      "##elery_soup": 2343,
      "##orizo": 2344,
      "cream_of_celery_soup": 2345,
      "##_sc": 2346,
      "chocolate_c": 2347,
      "shiitake_mushrooms": 2348,
      "##_ric": 2349,
      "##anish": 2350,
      "spanish": 2351,
      "sweet_red_peppers": 2352,
      "##ears": 2353,
      "##ed_beef": 2354,
      "agav": 2355,
      "##etta": 2356,
      "pancetta": 2357,
      "gu": 2358,
      "grapes": 2359,
      "##e_seasoning": 2360,
      "dried_parsley_flakes": 2361,
      "chorizo": 2362,
      "marshmallow": 2363,
      "chorizo_sausage": 2364,
      "##ole": 2365,
      "##_spears": 2366,
      "##d_c": 2367,
      "##ppers": 2368,
      "ground_mustard": 2369,
      "##ryst": 2370,
      "ground_flax_seeds": 2371,
      "##ed_pepper": 2372,
      "mashed_bananas": 2373,
      "##etto": 2374,
      "amaretto": 2375,
      "##utney": 2376,
      "##_scallops": 2377,
      "##iag": 2378,
      "##hell": 2379,
      "asiag": 2380,
      "asiago_cheese": 2381,
      "##his": 2382,
      "##egg_noodles": 2383,
      "##_chili_sauce": 2384,
      "thai": 2385,
      "salted_butter": 2386,
      "powdered_milk": 2387,
      "##_ham": 2388,
      "##ed_t": 2389,
      "##lit": 2390,
      "onion_salt": 2391,
      "peppermint": 2392,
      "##_wrappers": 2393,
      "butterscotch_chips": 2394,
      "chicken_breast_halves": 2395,
      "##e_relish": 2396,
      "cremini_mushrooms": 2397,
      "ry": 2398,
      "canned_tomatoes": 2399,
      "beets": 2400,
      "coriander_leaves": 2401,
      "tap": 2402,
      "asparagus_spears": 2403,
      "biscu": 2404,
      "##_cocoa": 2405,
      "red_chili_pepper": 2406,
      "pom": 2407,
      "##ein": 2408,
      "##e_juice_concentrate": 2409,
      "ground_cayenn": 2410,
      "fresh_parmesan_cheese": 2411,
      "##_shells": 2412,
      "ground_cayenne_pepper": 2413,
      "##egran": 2414,
      "##uffin": 2415,
      "pomegran": 2416,
      "##aps": 2417,
      "##fi": 2418,
      "##icc": 2419,
      "##urry": 2420,
      "creamed_corn": 2421,
      "##urry_paste": 2422,
      "ground_almonds": 2423,
      "italian_parsley": 2424,
      "whole_wheat_bread": 2425,
      "red_chilies": 2426,
      "kale": 2427,
      "pizza_dough": 2428,
      "##ed_bread_": 2429,
      "##ed_bread_crumbs": 2430,
      "##e_flour": 2431,
      "##_muffin": 2432,
      "chicken_pieces": 2433,
      "yellow_bell_peppers": 2434,
      "##d_cheese": 2435,
      "##rown_rice": 2436,
      "cooked_brown_rice": 2437,
      "##fish": 2438,
      "##chilies": 2439,
      "##_blen": 2440,
      "##ass": 2441,
      "mexican_blen": 2442,
      "mexican_blend_cheese": 2443,
      "##ib": 2444,
      "instant_coffee": 2445,
      "mir": 2446,
      "fresh_italian": 2447,
      "coriander_powder": 2448,
      "fresh_italian_parsley": 2449,
      "bl": 2450,
      "won": 2451,
      "currants": 2452,
      "wonton": 2453,
      "##boo": 2454,
      "##mboo": 2455,
      "##illo": 2456,
      "bamboo": 2457,
      "##cress": 2458,
      "##alo": 2459,
      "watercress": 2460,
      "smoked_salmon": 2461,
      "##ed_white_": 2462,
      "##_bits": 2463,
      "bacon_bits": 2464,
      "##eed_oil": 2465,
      "mascarpone_cheese": 2466,
      "tamari": 2467,
      "cherry_pie_filling": 2468,
      "##anched_almonds": 2469,
      "blanched_almonds": 2470,
      "cooked_turkey": 2471,
      "noodles": 2472,
      "beef_b": 2473,
      "dark_sesam": 2474,
      "rice_flour": 2475,
      "##e_cream_cheese": 2476,
      "fat_free_cream_cheese": 2477,
      "dark_sesame_oil": 2478,
      "flax_seeds": 2479,
      "ghee": 2480,
      "sweet_potato": 2481,
      "do": 2482,
      "##d_mar": 2483,
      "grand_mar": 2484,
      "##_ha": 2485,
      "##nier": 2486,
      "apricot_preserves": 2487,
      "grand_marnier": 2488,
      "##kew": 2489,
      "bagu": 2490,
      "mirin": 2491,
      "baguette": 2492,
      "past": 2493,
      "##_gravy": 2494,
      "##kewers": 2495,
      "##ir_pasta": 2496,
      "angel_ha": 2497,
      "angel_hair_pasta": 2498,
      "bre": 2499,
      "creole_seasoning": 2500,
      "brew": 2501,
      "##coo": 2502,
      "##quick": 2503,
      "bisquick": 2504,
      "##eslaw": 2505,
      "##aste": 2506,
      "coleslaw": 2507,
      "ado": 2508,
      "lard": 2509,
      "##hlu": 2510,
      "kahlu": 2511,
      "cranberry_juice": 2512,
      "adobo": 2513,
      "kahlua": 2514,
      "gelatin": 2515,
      "whole_wheat_pastry": 2516,
      "whole_wheat_pastry_flour": 2517,
      "crackers": 2518,
      "##ed_salad_": 2519,
      "mixed_salad_": 2520,
      "mixed_salad_greens": 2521,
      "##uble_cream": 2522,
      "beef_bouillon_cubes": 2523,
      "double_cream": 2524,
      "dill_p": 2525,
      "##_of_mushroom_soup": 2526,
      "##ed_cream_of_mushroom_soup": 2527,
      "smoked_sausage": 2528,
      "condensed_cream_of_mushroom_soup": 2529,
      "star": 2530,
      "##_basil": 2531,
      "##elb": 2532,
      "##offee": 2533,
      "light_cream_cheese": 2534,
      "fresh_pineapple": 2535,
      "vanilla_bean": 2536,
      "frozen_whipp": 2537,
      "##ausag": 2538,
      "frozen_whipped_topping": 2539,
      "##at_n": 2540,
      "chicken_": 2541,
      "##orthern": 2542,
      "great_n": 2543,
      "pistachios": 2544,
      "##orthern_beans": 2545,
      "great_northern_beans": 2546,
      "##alli": 2547,
      "italian_bread": 2548,
      "##_wine_vinegar": 2549,
      "sherry_wine_vinegar": 2550,
      "##hiskey": 2551,
      "##elli": 2552,
      "ground_chicken": 2553,
      "##_coffee": 2554,
      "##mo": 2555,
      "##_chiles": 2556,
      "lemon_slices": 2557,
      "green_": 2558,
      "enchilada_sauce": 2559,
      "sum": 2560,
      "##_al": 2561,
      "tom": 2562,
      "##atillo": 2563,
      "tomatillo": 2564,
      "bul": 2565,
      "pic": 2566,
      "##orino": 2567,
      "pecorino": 2568,
      "tri": 2569,
      "minced_ginger": 2570,
      "##aspar": 2571,
      "feta": 2572,
      "##asparagus": 2573,
      "##_starch": 2574,
      "white_mushrooms": 2575,
      "pra": 2576,
      "##wns": 2577,
      "pork_sausage": 2578,
      "##ok_cho": 2579,
      "prawns": 2580,
      "##ok_choy": 2581,
      "chilies": 2582,
      "##ao": 2583,
      "##ie_": 2584,
      "cherries": 2585,
      "##icum": 2586,
      "gor": 2587,
      "##asa": 2588,
      "frozen_orang": 2589,
      "##_seasoning_mix": 2590,
      "ginger_al": 2591,
      "orange_b": 2592,
      "##_jelly": 2593,
      "##zola": 2594,
      "##gonzola": 2595,
      "##elbasa": 2596,
      "gorgonzola": 2597,
      "frozen_orange_juice_concentrate": 2598,
      "ginger_ale": 2599,
      "fin": 2600,
      "rit": 2601,
      "##z_crackers": 2602,
      "ritz_crackers": 2603,
      "fon": 2604,
      "##ioc": 2605,
      "##nectar": 2606,
      "##e_nectar": 2607,
      "##_of_": 2608,
      "pumpkin_seeds": 2609,
      "agave_nectar": 2610,
      "##gna": 2611,
      "##e_sec": 2612,
      "##ple_sec": 2613,
      "wonton_wrappers": 2614,
      "triple_sec": 2615,
      "chip": 2616,
      "##_cut": 2617,
      "seasoned_bread_crumbs": 2618,
      "tapioc": 2619,
      "tapioca": 2620,
      "croutons": 2621,
      "mini_mar": 2622,
      "##risk": 2623,
      "mini_marshmallows": 2624,
      "pap": 2625,
      "pitt": 2626,
      "##e_pieces": 2627,
      "pomegranat": 2628,
      "grapef": 2629,
      "##risket": 2630,
      "grapefruit": 2631,
      "##_gum": 2632,
      "barley": 2633,
      "##krisp": 2634,
      "##ated_": 2635,
      "##otl": 2636,
      "rice_krisp": 2637,
      "pimientos": 2638,
      "chipotl": 2639,
      "rice_krispies": 2640,
      "##e_crack": 2641,
      "##e_crackers": 2642,
      "dried_cherries": 2643,
      "whole_chicken": 2644,
      "##tina": 2645,
      "candy": 2646,
      "fontina": 2647,
      "mini_chocolate_chips": 2648,
      "fat_free_so": 2649,
      "fat_free_sour_cream": 2650,
      "##reads": 2651,
      "dried_dill_weed": 2652,
      "til": 2653,
      "##apia": 2654,
      "tilapia": 2655,
      "tilapia_fillets": 2656,
      "ground_s": 2657,
      "spinach_leaves": 2658,
      "##_minc": 2659,
      "##_threads": 2660,
      "uncoo": 2661,
      "##ked_rice": 2662,
      "uncooked_rice": 2663,
      "cryst": 2664,
      "##paste": 2665,
      "##zed_ginger": 2666,
      "##shrimp": 2667,
      "frozen_p": 2668,
      "##allized_ginger": 2669,
      "crystallized_ginger": 2670,
      "##hia": 2671,
      "white_cake_mix": 2672,
      "wid": 2673,
      "##e_egg_noodles": 2674,
      "dill_pickles": 2675,
      "wide_egg_noodles": 2676,
      "##han": 2677,
      "##rosting": 2678,
      "##_roll": 2679,
      "fettuc": 2680,
      "##cine": 2681,
      "cauliflower_florets": 2682,
      "fettuccine": 2683,
      "sweet_red_pepper": 2684,
      "wild_rice": 2685,
      "mushroom": 2686,
      "golden_syrup": 2687,
      "##water_chestnuts": 2688,
      "sliced_water_chestnuts": 2689,
      "graham_cracker": 2690,
      "cooked_white_": 2691,
      "cooked_white_rice": 2692,
      "sult": 2693,
      "##l_b": 2694,
      "saffron_threads": 2695,
      "pearl_b": 2696,
      "sultan": 2697,
      "pearl_barley": 2698,
      "##out": 2699,
      "##ermout": 2700,
      "pickling": 2701,
      "spicy": 2702,
      "summer": 2703,
      "##ermouth": 2704,
      "pastry": 2705,
      "sultanas": 2706,
      "green_food_coloring": 2707,
      "coffee": 2708,
      "##_liqueur": 2709,
      "fresh_asparagus": 2710,
      "white_beans": 2711,
      "##amp": 2712,
      "beef_st": 2713,
      "condensed_milk": 2714,
      "pret": 2715,
      "beef_stew": 2716,
      "flax": 2717,
      "##lut": 2718,
      "instant_yeast": 2719,
      "tomatillos": 2720,
      "flax_s": 2721,
      "oregano_leaves": 2722,
      "ground_lamb": 2723,
      "##_ti": 2724,
      "bic": 2725,
      "##f_soda": 2726,
      "##onat": 2727,
      "##arbonat": 2728,
      "##ussels_sprouts": 2729,
      "##e_of_soda": 2730,
      "brussels_sprouts": 2731,
      "bicarbonat": 2732,
      "bicarbonate_of_soda": 2733,
      "veg": 2734,
      "tea": 2735,
      "##artichoke_hearts": 2736,
      "marinated_": 2737,
      "nutrit": 2738,
      "##ional_yeast": 2739,
      "marinated_artichoke_hearts": 2740,
      "nutritional_yeast": 2741,
      "##_strawberries": 2742,
      "frozen_strawberries": 2743,
      "##alls": 2744,
      "##ub_soda": 2745,
      "club_soda": 2746,
      "sirloin": 2747,
      "chili_flakes": 2748,
      "sourdough_bread": 2749,
      "##unes": 2750,
      "##ase": 2751,
      "sweet_pickl": 2752,
      "sweet_pickle_relish": 2753,
      "dried_italian": 2754,
      "vanilla_wafers": 2755,
      "dried_italian_seasoning": 2756,
      "##kles": 2757,
      "##_beer": 2758,
      "##ante_sauce": 2759,
      "##rinkles": 2760,
      "baking_cocoa": 2761,
      "cra": 2762,
      "lump": 2763,
      "##redo": 2764,
      "champ": 2765,
      "##agn": 2766,
      "oat_bran": 2767,
      "alfredo": 2768,
      "##lit_peas": 2769,
      "lump_crabmeat": 2770,
      "champagn": 2771,
      "alfredo_sauce": 2772,
      "sake": 2773,
      "##_an": 2774,
      "mint_sprigs": 2775,
      "star_an": 2776,
      "corned_beef": 2777,
      "##ed_coffee": 2778,
      "brewed_coffee": 2779,
      "##ogh": 2780,
      "##oghurt": 2781,
      "berries": 2782,
      "frozen_corn_kernels": 2783,
      "##apsicum": 2784,
      "food_coloring": 2785,
      "##eli": 2786,
      "turnips": 2787,
      "tofu": 2788,
      "kiwi_fruit": 2789,
      "##ed_tomato": 2790,
      "bri": 2791,
      "##ial": 2792,
      "##eaches": 2793,
      "brie_cheese": 2794,
      "sweet_chili_sauce": 2795,
      "##_pie_crust": 2796,
      "##_tenders": 2797,
      "cogna": 2798,
      "cognac": 2799,
      "curry_leaves": 2800,
      "##sticks": 2801,
      "mussels": 2802,
      "fresh_mo": 2803,
      "kielbasa": 2804,
      "beef_stew_meat": 2805,
      "fresh_mozzarella_cheese": 2806,
      "hab": 2807,
      "##aner": 2808,
      "habaner": 2809,
      "gren": 2810,
      "##_and_green_chilies": 2811,
      "tomatoes_and_green_chilies": 2812,
      "##adine": 2813,
      "anis": 2814,
      "frozen_green_peas": 2815,
      "grenadine": 2816,
      "chili_beans": 2817,
      "blackberries": 2818,
      "apricot_jam": 2819,
      "##granules": 2820,
      "instant_coffee_": 2821,
      "anchovy_fillets": 2822,
      "##luten": 2823,
      "instant_coffee_granules": 2824,
      "rice_wine": 2825,
      "stock": 2826,
      "##pes": 2827,
      "##_mustard_": 2828,
      "frozen_": 2829,
      "dark_soy_sauce": 2830,
      "##_cereal": 2831,
      "##pcorn": 2832,
      "##_wheat": 2833,
      "##arind_": 2834,
      "tamarind_": 2835,
      "hot_dogs": 2836,
      "papay": 2837,
      "##nip": 2838,
      "##nap_peas": 2839,
      "esp": 2840,
      "##ing_beef": 2841,
      "stewing_beef": 2842,
      "mixed_vegetables": 2843,
      "espresso": 2844,
      "dry_onion": 2845,
      "cooked_shrimp": 2846,
      "dry_onion_soup_mix": 2847,
      "cant": 2848,
      "caramels": 2849,
      "##aloup": 2850,
      "cantaloup": 2851,
      "##ices": 2852,
      "chuck": 2853,
      "##_spices": 2854,
      "instant_rice": 2855,
      "fish_fillets": 2856,
      "lo": 2857,
      "##ine_crackers": 2858,
      "saltine_crackers": 2859,
      "cardamom_pods": 2860,
      "thyme_leaves": 2861,
      "##e_bread": 2862,
      "##amole": 2863,
      "green_peas": 2864,
      "##acao": 2865,
      "##acamole": 2866,
      "##ood_c": 2867,
      "guacamole": 2868,
      "star_anise": 2869,
      "wine_vinegar": 2870,
      "penne": 2871,
      "coffee_": 2872,
      "##tail": 2873,
      "mars": 2874,
      "xant": 2875,
      "##ed_h": 2876,
      "chicken_bouillon_cube": 2877,
      "##han_gum": 2878,
      "xanthan_gum": 2879,
      "cat": 2880,
      "##alm": 2881,
      "##_foil": 2882,
      "soya_sauce": 2883,
      "candied_": 2884,
      "chili_peppers": 2885,
      "nap": 2886,
      "apple_pi": 2887,
      "wheat_flour": 2888,
      "frozen_puff_pastry": 2889,
      "##a_cabbage": 2890,
      "napa_cabbage": 2891,
      "##ripping": 2892,
      "cres": 2893,
      "##_chutney": 2894,
      "chicken_bouillon_granules": 2895,
      "fresh_coriander_leaves": 2896,
      "##rippings": 2897,
      "crescent": 2898,
      "des": 2899,
      "##ated_coconut": 2900,
      "##_bag": 2901,
      "sugar_substitute": 2902,
      "##iccated_coconut": 2903,
      "desiccated_coconut": 2904,
      "crisp": 2905,
      "##ed_onion": 2906,
      "yellow_pepper": 2907,
      "red_chili_peppers": 2908,
      "##erbes": 2909,
      "fontina_cheese": 2910,
      "##_ice_cream": 2911,
      "##ener": 2912,
      "cornb": 2913,
      "##weetener": 2914,
      "##ini_pasta": 2915,
      "##_shoots": 2916,
      "rotini_pasta": 2917,
      "graham_cracker_pie_crust": 2918,
      "##melon": 2919,
      "watermelon": 2920,
      "##presso": 2921,
      "##espresso": 2922,
      "##e_shell": 2923,
      "granulated_garlic": 2924,
      "pita_bread": 2925,
      "sea_scallops": 2926,
      "clams": 2927,
      "beef_brisket": 2928,
      "##ev": 2929,
      "##iny": 2930,
      "frozen_ra": 2931,
      "frozen_raspberries": 2932,
      "##e_cereal": 2933,
      "oysters": 2934,
      "##black_peppercorns": 2935,
      "whole_black_peppercorns": 2936,
      "english_muffin": 2937,
      "beans": 2938,
      "bow": 2939,
      "##readcrumbs": 2940,
      "diced_tomatoes_with_juice": 2941,
      "dried_breadcrumbs": 2942,
      "##_tie_pasta": 2943,
      "bow_tie_pasta": 2944,
      "##_paprika": 2945,
      "##_flavoring": 2946,
      "kiwi_fruits": 2947,
      "marsala": 2948,
      "##ulder": 2949,
      "##_shoulder": 2950,
      "frozen_broccoli": 2951,
      "##e_vinegar": 2952,
      "bamboo_shoots": 2953,
      "##inaig": 2954,
      "fresh_sage_leaves": 2955,
      "##lams": 2956,
      "summer_squash": 2957,
      "##inaigr": 2958,
      "mapl": 2959,
      "light_rum": 2960,
      "condensed_tomato": 2961,
      "condensed_tomato_soup": 2962,
      "ph": 2963,
      "##gur": 2964,
      "##er_rolls": 2965,
      "##_skewers": 2966,
      "light_olive_oil": 2967,
      "raw_sugar": 2968,
      "phyllo_dough": 2969,
      "bulgur": 2970,
      "na": 2971,
      "##db": 2972,
      "##unch": 2973,
      "##_cream_cheese": 2974,
      "##tidb": 2975,
      "pineapple_tidb": 2976,
      "pineapple_tidbits": 2977,
      "vegan": 2978,
      "habanero": 2979,
      "##fic": 2980,
      "##_sweetener": 2981,
      "fresh_herbs": 2982,
      "##tific": 2983,
      "artific": 2984,
      "##ial_sweetener": 2985,
      "artificial_sweetener": 2986,
      "##o_cookies": 2987,
      "oreo_cookies": 2988,
      "##_greens": 2989,
      "deli": 2990,
      "hal": 2991,
      "deli_ham": 2992,
      "##alam": 2993,
      "##dates": 2994,
      "##_mo": 2995,
      "peppermint_extract": 2996,
      "##balls": 2997,
      "ranch_dressing_mix": 2998,
      "##ausages": 2999,
      "picante_sauce": 3000,
      "cantaloupe": 3001,
      "##lets": 3002,
      "scallops": 3003,
      "##_chile": 3004,
      "##figs": 3005,
      "##_cutlets": 3006,
      "raw_shrimp": 3007,
      "##eed_meal": 3008,
      "##ibut": 3009,
      "flax_seed_meal": 3010,
      "halibut": 3011,
      "##leg": 3012,
      "##_brown_mustard": 3013,
      "raspberry_jam": 3014,
      "spicy_brown_mustard": 3015,
      "ac": 3016,
      "##ed_dates": 3017,
      "crunch": 3018,
      "pitted_dates": 3019,
      "chuck_roast": 3020,
      "crunchy_peanut_butter": 3021,
      "##mano_cheese": 3022,
      "##_romano_cheese": 3023,
      "pecorino_romano_cheese": 3024,
      "##elp": 3025,
      "dark_corn_syrup": 3026,
      "mixed_sp": 3027,
      "mixed_spice": 3028,
      "salad_dressing": 3029,
      "fine_sea_salt": 3030,
      "veal": 3031,
      "red_lentils": 3032,
      "vanilla_yogurt": 3033,
      "##_ribs": 3034,
      "##ice_powder": 3035,
      "fresh_broccoli": 3036,
      "##e_fiv": 3037,
      "##e_spice_powder": 3038,
      "chinese_fiv": 3039,
      "chinese_five_spice_powder": 3040,
      "ground_sage": 3041,
      "##wheat_flour": 3042,
      "##_snap_peas": 3043,
      "sugar_snap_peas": 3044,
      "pork_": 3045,
      "##_nectar": 3046,
      "##wich": 3047,
      "##_cre": 3048,
      "##_gelatin": 3049,
      "graham_cracker_c": 3050,
      "##andwich": 3051,
      "graham_cracker_crust": 3052,
      "##icelli": 3053,
      "##_can": 3054,
      "##ermicelli": 3055,
      "port_wine": 3056,
      "was": 3057,
      "##abi": 3058,
      "chili_paste": 3059,
      "wasabi": 3060,
      "pur": 3061,
      "##_mustard_seeds": 3062,
      "toasted_almonds": 3063,
      "frozen_lemon": 3064,
      "rig": 3065,
      "##atoni": 3066,
      "milk_chocolate": 3067,
      "dried_red_": 3068,
      "rigatoni": 3069,
      "dried_red_chilies": 3070,
      "rigatoni_pasta": 3071,
      "herbes": 3072,
      "sweet_corn": 3073,
      "pecan_pieces": 3074,
      "##_de_p": 3075,
      "fresh_spinach_leaves": 3076,
      "##rovence": 3077,
      "herbes_de_p": 3078,
      "herbes_de_provence": 3079,
      "##_k": 3080,
      "coleslaw_mix": 3081,
      "bok_choy": 3082,
      "##still": 3083,
      "distill": 3084,
      "##ilad": 3085,
      "salted_peanuts": 3086,
      "##e_peel": 3087,
      "##hia_cream_cheese": 3088,
      "philad": 3089,
      "##elphia_cream_cheese": 3090,
      "philadelphia_cream_cheese": 3091,
      "##_and_beans": 3092,
      "##_vermouth": 3093,
      "pork_and_beans": 3094,
      "purpl": 3095,
      "##sna": 3096,
      "##rumsticks": 3097,
      "##_drumsticks": 3098,
      "potato_chips": 3099,
      "potato_starch": 3100,
      "grapeseed_oil": 3101,
      "lobs": 3102,
      "rub": 3103,
      "##one": 3104,
      "fennel_bulb": 3105,
      "garlic_paste": 3106,
      "##_drippings": 3107,
      "##_molasses": 3108,
      "##ens": 3109,
      "##e_crumbs": 3110,
      "acorn": 3111,
      "dried_mint": 3112,
      "acorn_squash": 3113,
      "mild_": 3114,
      "##sing_flour": 3115,
      "##cheddar_cheese": 3116,
      "##_rising_flour": 3117,
      "mango_chutney": 3118,
      "creme_d": 3119,
      "self_rising_flour": 3120,
      "mild_cheddar_cheese": 3121,
      "ice_cream": 3122,
      "##ocktail": 3123,
      "vanilla_beans": 3124,
      "sandwich": 3125,
      "whiskey": 3126,
      "coconut_cream": 3127,
      "broth": 3128,
      "im": 3129,
      "##ation": 3130,
      "corn_chips": 3131,
      "##itation": 3132,
      "ground_sirloin": 3133,
      "imitation": 3134,
      "mace": 3135,
      "sirloin_steaks": 3136,
      "##italian_sausage": 3137,
      "hot_italian_sausage": 3138,
      "english_muffins": 3139,
      "iri": 3140,
      "okra": 3141,
      "##umbo": 3142,
      "##_mash": 3143,
      "smoked_ham": 3144,
      "irish": 3145,
      "##_mashed_potatoes": 3146,
      "##iso": 3147,
      "walnut_pieces": 3148,
      "##_espresso": 3149,
      "##reak": 3150,
      "baked_b": 3151,
      "green_c": 3152,
      "instant_espresso": 3153,
      "walnut_halves": 3154,
      "##_of_lamb": 3155,
      "baked_beans": 3156,
      "##_coconut_milk": 3157,
      "chicken_drumsticks": 3158,
      "light_coconut_milk": 3159,
      "ginger_powder": 3160,
      "frozen_blueberries": 3161,
      "##legs": 3162,
      "##icks": 3163,
      "wheat_bran": 3164,
      "##_rice_cereal": 3165,
      "ram": 3166,
      "##ara": 3167,
      "prunes": 3168,
      "imitation_crabmeat": 3169,
      "yellow_food_coloring": 3170,
      "coconut_extract": 3171,
      "instant_minc": 3172,
      "clam_juice": 3173,
      "instant_minced_onion": 3174,
      "rolls": 3175,
      "fresh_peaches": 3176,
      "adobo_sauce": 3177,
      "##enchilada_sauce": 3178,
      "biscuit": 3179,
      "##g_coffee": 3180,
      "stron": 3181,
      "strong_coffee": 3182,
      "##ola": 3183,
      "##en_noodles": 3184,
      "##ortellini": 3185,
      "turkey_breast": 3186,
      "marshmallow_cre": 3187,
      "##ed_white_vinegar": 3188,
      "distilled_white_vinegar": 3189,
      "marshmallow_creme": 3190,
      "salam": 3191,
      "##_food_c": 3192,
      "dried_fruit": 3193,
      "unsweetened_coconut_milk": 3194,
      "angel_food_c": 3195,
      "salami": 3196,
      "yam": 3197,
      "##pps": 3198,
      "##chna": 3199,
      "##tichokes": 3200,
      "##chnapps": 3201,
      "wine": 3202,
      "cracker_crumbs": 3203,
      "salad_greens": 3204,
      "##row": 3205,
      "##_base": 3206,
      "jas": 3207,
      "##mine_": 3208,
      "##ed_bacon": 3209,
      "rice_noodles": 3210,
      "smoked_bacon": 3211,
      "jasmine_": 3212,
      "##_potato": 3213,
      "honey_mustard": 3214,
      "mat": 3215,
      "##a_beans": 3216,
      "coarse_sea_salt": 3217,
      "##ade_concentrate": 3218,
      "chocolate_w": 3219,
      "serrano_chilies": 3220,
      "chocolate_waf": 3221,
      "##ama": 3222,
      "orange_extract": 3223,
      "pork_loin": 3224,
      "chicken_tenders": 3225,
      "taco_sauce": 3226,
      "##rotein": 3227,
      "jic": 3228,
      "man": 3229,
      "##in_mustard": 3230,
      "dry_roast": 3231,
      "whole_gra": 3232,
      "jicama": 3233,
      "dry_roasted_peanuts": 3234,
      "whole_grain_mustard": 3235,
      "yellow_peppers": 3236,
      "##_tops": 3237,
      "ramen_noodles": 3238,
      "nav": 3239,
      "##el_orang": 3240,
      "fresh_fruit": 3241,
      "white_corn": 3242,
      "chili_pepper": 3243,
      "strawberry_jam": 3244,
      "navel_orang": 3245,
      "##cini": 3246,
      "##_schnapps": 3247,
      "herbs": 3248,
      "orange_liqueur": 3249,
      "rose_water": 3250,
      "jasmine_rice": 3251,
      "##urrants": 3252,
      "##_honey": 3253,
      "peanut_butter_chips": 3254,
      "##_fat": 3255,
      "plums": 3256,
      "roasted_peanuts": 3257,
      "##cent_seasoning": 3258,
      "fennel_bulbs": 3259,
      "accent_seasoning": 3260,
      "pass": 3261,
      "ro": 3262,
      "##opcorn": 3263,
      "##honey": 3264,
      "##ky_peanut_butter": 3265,
      "##unky_peanut_butter": 3266,
      "chunky_peanut_butter": 3267,
      "tomato_k": 3268,
      "##ital": 3269,
      "orange_juice_concentrate": 3270,
      "brown_ric": 3271,
      "liquid_honey": 3272,
      "simple_syrup": 3273,
      "caramel_ice_cream": 3274,
      "tomato_ketchup": 3275,
      "caramel_ice_cream_topping": 3276,
      "stev": 3277,
      "beef_bouillon_cube": 3278,
      "marshmallow_cream": 3279,
      "stevia": 3280,
      "min": 3281,
      "##_lim": 3282,
      "##zels": 3283,
      "pretzels": 3284,
      "rip": 3285,
      "yoghurt": 3286,
      "tomatoes_with_juice": 3287,
      "##e_olives": 3288,
      "ripe_olives": 3289,
      "unsweetened_coconut": 3290,
      "artichokes": 3291,
      "##e_soup": 3292,
      "jumbo": 3293,
      "zit": 3294,
      "##i_pasta": 3295,
      "steak_sauce": 3296,
      "pita_brea": 3297,
      "jumbo_shrimp": 3298,
      "ziti_pasta": 3299,
      "whole_almonds": 3300,
      "gin": 3301,
      "whole_allspice": 3302,
      "fresh_corn": 3303,
      "rotel": 3304,
      "crescent_rolls": 3305,
      "fish_stock": 3306,
      "beef_bouillon_granules": 3307,
      "onion_flakes": 3308,
      "apricots": 3309,
      "ne": 3310,
      "virgin_olive_oil": 3311,
      "##uf": 3312,
      "##atel": 3313,
      "##chatel": 3314,
      "neuf": 3315,
      "##chatel_cheese": 3316,
      "neufchatel_cheese": 3317,
      "red_curry_paste": 3318,
      "ground_thyme": 3319,
      "mixed_herbs": 3320,
      "chocolate_cake_mix": 3321,
      "rye_bread": 3322,
      "##inaigrette": 3323,
      "palm": 3324,
      "lad": 3325,
      "toff": 3326,
      "##ee_pieces": 3327,
      "##finger": 3328,
      "##yfinger": 3329,
      "##e_seed": 3330,
      "cinnamon_sugar": 3331,
      "##ein_noodles": 3332,
      "anise_seed": 3333,
      "ladyfinger": 3334,
      "toffee_pieces": 3335,
      "syrup": 3336,
      "##olent": 3337,
      "dried_red_pepper_flakes": 3338,
      "white_potatoes": 3339,
      "almond_milk": 3340,
      "red_capsicum": 3341,
      "ladyfingers": 3342,
      "##olenta": 3343,
      "##olina": 3344,
      "cooking_apples": 3345,
      "semolina": 3346,
      "chicken_breast_fillets": 3347,
      "rye_flour": 3348,
      "tea_bag": 3349,
      "marsala_wine": 3350,
      "frozen_h": 3351,
      "##vy_beans": 3352,
      "pork_shoulder": 3353,
      "navy_beans": 3354,
      "frozen_hash_browns": 3355,
      "chili_seasoning_mix": 3356,
      "champagne": 3357,
      "yams": 3358,
      "##udg": 3359,
      "dry_vermouth": 3360,
      "matzo": 3361,
      "##_chard": 3362,
      "##ed_skim_milk": 3363,
      "ginger_paste": 3364,
      "evaporated_skim_milk": 3365,
      "swiss_chard": 3366,
      "##oy": 3367,
      "##ame": 3368,
      "##ian_bacon": 3369,
      "##adian_bacon": 3370,
      "##quet": 3371,
      "##ouquet": 3372,
      "canadian_bacon": 3373,
      "blue_c": 3374,
      "crab": 3375,
      "white_rum": 3376,
      "catfish": 3377,
      "squash": 3378,
      "##_meal": 3379,
      "green_car": 3380,
      "##orcini_mushrooms": 3381,
      "green_cardamom": 3382,
      "pam": 3383,
      "serrano_peppers": 3384,
      "pam_cooking_spray": 3385,
      "##ob": 3386,
      "##_pesto": 3387,
      "dark_chocolate_chips": 3388,
      "basil_pesto": 3389,
      "##damame": 3390,
      "poblano_chiles": 3391,
      "biscuits": 3392,
      "##_berries": 3393,
      "vegetable_juice": 3394,
      "##_sprinkles": 3395,
      "rum_extract": 3396,
      "meatballs": 3397,
      "candy_sprinkles": 3398,
      "vermicelli": 3399,
      "baby_shrimp": 3400,
      "white_cheddar_cheese": 3401,
      "biscuit_mix": 3402,
      "far": 3403,
      "key": 3404,
      "##bed_s": 3405,
      "##jelly": 3406,
      "##e_black_pepper": 3407,
      "lime_slices": 3408,
      "coarse_black_pepper": 3409,
      "rubbed_s": 3410,
      "rubbed_sage": 3411,
      "##t_jelly": 3412,
      "##rant_jelly": 3413,
      "almond_flour": 3414,
      "ground_turkey_breast": 3415,
      "orange_slices": 3416,
      "spanish_onion": 3417,
      "jam": 3418,
      "##vies": 3419,
      "##reek": 3420,
      "granola": 3421,
      "instant_espresso_powder": 3422,
      "granola_cereal": 3423,
      "malt": 3424,
      "##_sheets": 3425,
      "poblano_peppers": 3426,
      "arrow": 3427,
      "instant_coffe": 3428,
      "chicken_legs": 3429,
      "papayas": 3430,
      "arrowroot": 3431,
      "fen": 3432,
      "rock": 3433,
      "##ug": 3434,
      "##_pork": 3435,
      "##apple": 3436,
      "fenug": 3437,
      "fenugreek": 3438,
      "ci": 3439,
      "##atta": 3440,
      "chow_m": 3441,
      "##abatta": 3442,
      "parsley_sprigs": 3443,
      "roasted_garlic": 3444,
      "angel_food_cake": 3445,
      "ciabatta": 3446,
      "chow_mein_noodles": 3447,
      "##_root": 3448,
      "##um_foil": 3449,
      "##uminum_foil": 3450,
      "aluminum_foil": 3451,
      "beef_tenderloin": 3452,
      "purple_": 3453,
      "##de": 3454,
      "##omme": 3455,
      "frozen_green_beans": 3456,
      "hot_red_pepper_flakes": 3457,
      "frozen_lemonade_concentrate": 3458,
      "sage_leaves": 3459,
      "##ard_": 3460,
      "turkey_bacon": 3461,
      "cranberry_sauce": 3462,
      "palm_sugar": 3463,
      "##lettuce_leaves": 3464,
      "##ulp": 3465,
      "almond_meal": 3466,
      "soda": 3467,
      "jalapeno_chile": 3468,
      "##lower_oil": 3469,
      "dried_currants": 3470,
      "safflower_oil": 3471,
      "butter_beans": 3472,
      "##ed_popcorn": 3473,
      "cracked_pepper": 3474,
      "popped_popcorn": 3475,
      "almond_paste": 3476,
      "phyllo_pastry": 3477,
      "##hp": 3478,
      "##othp": 3479,
      "bacon_drippings": 3480,
      "fresh_rosemary_leaves": 3481,
      "toothp": 3482,
      "gla": 3483,
      "dried_figs": 3484,
      "pistachio": 3485,
      "chipotle_pepper": 3486,
      "fi": 3487,
      "hot_pepper_flakes": 3488,
      "stew_meat": 3489,
      "anchovies": 3490,
      "unbleached_white_": 3491,
      "toothpicks": 3492,
      "unbleached_white_flour": 3493,
      "##eso": 3494,
      "##round": 3495,
      "ground_round": 3496,
      "short": 3497,
      "##redded_h": 3498,
      "##_shredded_h": 3499,
      "simply_potatoes_shredded_h": 3500,
      "apple_pie_filling": 3501,
      "simply_potatoes_shredded_hash_browns": 3502,
      "gou": 3503,
      "egg_roll": 3504,
      "dried_herbs": 3505,
      "##da_cheese": 3506,
      "season_salt": 3507,
      "##_wraps": 3508,
      "gouda_cheese": 3509,
      "egg_roll_wraps": 3510,
      "vanilla_sugar": 3511,
      "soft": 3512,
      "beef_gravy": 3513,
      "dark_molasses": 3514,
      "mandarin_orange_s": 3515,
      "duck": 3516,
      "##_oregano": 3517,
      "green_tomatoes": 3518,
      "fresh_black_pepper": 3519,
      "dark_beer": 3520,
      "##of": 3521,
      "##ous": 3522,
      "##land_": 3523,
      "##d_of": 3524,
      "##e_extract": 3525,
      "##island_": 3526,
      "##and_island_": 3527,
      "sweet_butter": 3528,
      "head_of": 3529,
      "dried_cilantro": 3530,
      "thous": 3531,
      "pickling_salt": 3532,
      "##and_island_dressing": 3533,
      "thousand_island_dressing": 3534,
      "anchovy_paste": 3535,
      "##se": 3536,
      "##hex": 3537,
      "##iser_rolls": 3538,
      "##ir_lim": 3539,
      "##ffir_lim": 3540,
      "##ectin": 3541,
      "kaiser_rolls": 3542,
      "kaffir_lim": 3543,
      "kaffir_lime_leaves": 3544,
      "##f_lettuce": 3545,
      "##iced_potatoes": 3546,
      "red_sna": 3547,
      "##_chocolat": 3548,
      "##_diced_potatoes": 3549,
      "##_with_onion": 3550,
      "walnut_oil": 3551,
      "simply_potatoes_diced_potatoes": 3552,
      "red_snapper": 3553,
      "simply_potatoes_diced_potatoes_with_onion": 3554,
      "black_mustard_seeds": 3555,
      "##e_flavoring": 3556,
      "polenta": 3557,
      "##_cucumber": 3558,
      "turb": 3559,
      "curry_paste": 3560,
      "english_cucumber": 3561,
      "leg": 3562,
      "##_garlic": 3563,
      "##car": 3564,
      "##e_rice": 3565,
      "##ute_rice": 3566,
      "##_and_car": 3567,
      "turnip": 3568,
      "##e_frosting": 3569,
      "craisins": 3570,
      "minute_rice": 3571,
      "leg_of_lamb": 3572,
      "##_and_carrots": 3573,
      "##o_sugar": 3574,
      "##inad": 3575,
      "##rolls": 3576,
      "##_sticks": 3577,
      "##rings": 3578,
      "turbinad": 3579,
      "turbinado_sugar": 3580,
      "##anks": 3581,
      "he": 3582,
      "mu": 3583,
      "##ain": 3584,
      "spark": 3585,
      "grainy": 3586,
      "sparkl": 3587,
      "grainy_mustard": 3588,
      "colby": 3589,
      "pickles": 3590,
      "woo": 3591,
      "salt_pork": 3592,
      "catfish_fillets": 3593,
      "pistachio_nuts": 3594,
      "wooden": 3595,
      "tast": 3596,
      "##mac": 3597,
      "##y_cheese": 3598,
      "ground_mac": 3599,
      "##livers": 3600,
      "brown_onion": 3601,
      "seaf": 3602,
      "chicken_livers": 3603,
      "brown_rice_flour": 3604,
      "tasty_cheese": 3605,
      "ground_mace": 3606,
      "sri": 3607,
      "##eo": 3608,
      "##rach": 3609,
      "lima_beans": 3610,
      "##vory": 3611,
      "oleo": 3612,
      "srirach": 3613,
      "sriracha_sauce": 3614,
      "##ahi": 3615,
      "##alnuts": 3616,
      "##enis": 3617,
      "##enison": 3618,
      "ju": 3619,
      "##ax": 3620,
      "italian_breadcrumbs": 3621,
      "##_shortening": 3622,
      "golden_brown_sugar": 3623,
      "raspberry_vinegar": 3624,
      "crisco_shortening": 3625,
      "juice": 3626,
      "cheddar": 3627,
      "##ater_t": 3628,
      "powdered_ginger": 3629,
      "italian_chees": 3630,
      "##e_blen": 3631,
      "cream_of_coconut": 3632,
      "##_cheese_soup": 3633,
      "orange_bell_pepper": 3634,
      "farf": 3635,
      "cheddar_cheese_soup": 3636,
      "##ater_tots": 3637,
      "italian_cheese_blen": 3638,
      "italian_cheese_blend": 3639,
      "##aking": 3640,
      "##e_cabbage": 3641,
      "light_butter": 3642,
      "rosemary_sprigs": 3643,
      "brownie_": 3644,
      "adobo_seasoning": 3645,
      "grapefruit_juice": 3646,
      "tea_bags": 3647,
      "brownie_mix": 3648,
      "vanilla_f": 3649,
      "vanilla_pudding": 3650,
      "lime_rind": 3651,
      "pomegranate_juice": 3652,
      "vanilla_pudding_mix": 3653,
      "##ust": 3654,
      "##y_bread": 3655,
      "##oncini": 3656,
      "pepperoncini": 3657,
      "crust": 3658,
      "roast_beef": 3659,
      "cornbread": 3660,
      "pepperoncini_peppers": 3661,
      "crusty_bread": 3662,
      "rut": 3663,
      "##abag": 3664,
      "fresh_crack": 3665,
      "beef_roast": 3666,
      "rutabag": 3667,
      "fresh_cracked_pepper": 3668,
      "buck": 3669,
      "ms": 3670,
      "##elt": 3671,
      "##aper": 3672,
      "##ecan": 3673,
      "red_beans": 3674,
      "tuna_steaks": 3675,
      "msg": 3676,
      "baking_mix": 3677,
      "baby_b": 3678,
      "tapioca_flour": 3679,
      "##ear": 3680,
      "dried_chilies": 3681,
      "fenugreek_seeds": 3682,
      "soft_brown_sugar": 3683,
      "bouillon": 3684,
      "gruyere": 3685,
      "hot_dog_buns": 3686,
      "italian_salad_dressing_mix": 3687,
      "##pasta": 3688,
      "ground_ve": 3689,
      "##umm": 3690,
      "cooked_pasta": 3691,
      "##ottl": 3692,
      "baby_corn": 3693,
      "cool_whip_topping": 3694,
      "ground_veal": 3695,
      "tang": 3696,
      "##_shanks": 3697,
      "almond_b": 3698,
      "nonfat_yogurt": 3699,
      "cashew_nuts": 3700,
      "##al_": 3701,
      "##ed_ric": 3702,
      "##agie_": 3703,
      "dried_chives": 3704,
      "white_balsamic_vinegar": 3705,
      "hoagie_": 3706,
      "seasoned_ric": 3707,
      "seasoned_rice_vinegar": 3708,
      "apple_b": 3709,
      "##alle_pasta": 3710,
      "tamarind_paste": 3711,
      "farfalle_pasta": 3712,
      "##oet": 3713,
      "##_on": 3714,
      "##ida": 3715,
      "chili_oil": 3716,
      "queso": 3717,
      "##afoet": 3718,
      "asafoet": 3719,
      "##ida_powder": 3720,
      "asafoetida_powder": 3721,
      "bottl": 3722,
      "##_lime_juice": 3723,
      "##_clams": 3724,
      "pie_shell": 3725,
      "##_margarine": 3726,
      "creme_de_c": 3727,
      "key_lime_juice": 3728,
      "##chi": 3729,
      "chicken_base": 3730,
      "oat_flour": 3731,
      "tanger": 3732,
      "##lackberries": 3733,
      "fresh_blackberries": 3734,
      "##e_dressing": 3735,
      "soy_flour": 3736,
      "mixed_greens": 3737,
      "spices": 3738,
      "hi": 3739,
      "##snap": 3740,
      "##sts": 3741,
      "gingersnap": 3742,
      "coconut_flakes": 3743,
      "sweetened_coconut": 3744,
      "sour_milk": 3745,
      "clari": 3746,
      "##fied_butter": 3747,
      "clarified_butter": 3748,
      "burg": 3749,
      "##tortellini": 3750,
      "##yeast": 3751,
      "##illi": 3752,
      "##e_tortellini": 3753,
      "##undy": 3754,
      "spelt": 3755,
      "cheese_tortellini": 3756,
      "coffee_liqueur": 3757,
      "burgundy": 3758,
      "burgundy_wine": 3759,
      "fus": 3760,
      "ground_oregano": 3761,
      "italian_spices": 3762,
      "pork_b": 3763,
      "fusilli": 3764,
      "##ion_fruit": 3765,
      "##ita": 3766,
      "passion_fruit": 3767,
      "hun": 3768,
      "##e_ch": 3769,
      "##alley": 3770,
      "##garian": 3771,
      "##lot": 3772,
      "dry_milk": 3773,
      "raspberry_preserves": 3774,
      "candied_ginger": 3775,
      "chipotle_ch": 3776,
      "hungarian": 3777,
      "chipotle_chil": 3778,
      "hungarian_paprika": 3779,
      "##_ori": 3780,
      "##_cas": 3781,
      "##en_v": 3782,
      "##ranch": 3783,
      "##dden_v": 3784,
      "##ginal_": 3785,
      "dried_porcini_mushrooms": 3786,
      "french_dressing": 3787,
      "garam_masala_powder": 3788,
      "tarragon_vinegar": 3789,
      "pickling_spices": 3790,
      "irish_cream": 3791,
      "wooden_skewers": 3792,
      "hidden_v": 3793,
      "##alley_ori": 3794,
      "##ginal_ranch": 3795,
      "hidden_valley_ori": 3796,
      "hidden_valley_original_ranch": 3797,
      "break": 3798,
      "shell": 3799,
      "##fast": 3800,
      "##wur": 3801,
      "##shav": 3802,
      "chocolate_shav": 3803,
      "matzo_meal": 3804,
      "breakfast": 3805,
      "chocolate_shavings": 3806,
      "breakfast_sausage": 3807,
      "##'s": 3808,
      "##e_berries": 3809,
      "cream_chees": 3810,
      "celery_leaves": 3811,
      "rad": 3812,
      "##e_mix": 3813,
      "garlic_granules": 3814,
      "lobster": 3815,
      "##_tea": 3816,
      "##ections": 3817,
      "spaghetti_squash": 3818,
      "edamame": 3819,
      "##whipp": 3820,
      "romaine_lettuce_leaves": 3821,
      "mixed_nuts": 3822,
      "sweetened_whipp": 3823,
      "sweetened_whipped_cream": 3824,
      "clear": 3825,
      "hoagie_rolls": 3826,
      "clear_honey": 3827,
      "##ice_berries": 3828,
      "##antain": 3829,
      "sweet_basil": 3830,
      "##spice_berries": 3831,
      "allspice_berries": 3832,
      "colby_cheese": 3833,
      "##ecans": 3834,
      "au": 3835,
      "corn_flak": 3836,
      "beef_sh": 3837,
      "habanero_peppers": 3838,
      "corn_flake_crumbs": 3839,
      "##_fish": 3840,
      "beef_c": 3841,
      "vital": 3842,
      "cayenne_powder": 3843,
      "##_gluten": 3844,
      "courg": 3845,
      "salmon_steaks": 3846,
      "##_wheat_gluten": 3847,
      "vital_wheat_gluten": 3848,
      "har": 3849,
      "##rease": 3850,
      "red_lea": 3851,
      "bacon_g": 3852,
      "dark_raisins": 3853,
      "##dies": 3854,
      "##dive": 3855,
      "lemon_pepper_seasoning": 3856,
      "mexican_oregano": 3857,
      "malt_vinegar": 3858,
      "red_leaf_lettuce": 3859,
      "bacon_grease": 3860,
      "cereal": 3861,
      "##whol": 3862,
      "##e_wheat_flour": 3863,
      "white_whol": 3864,
      "frosting": 3865,
      "maraschino_cherry": 3866,
      "##onsomme": 3867,
      "sandwich_buns": 3868,
      "beef_consomme": 3869,
      "white_whole_wheat_flour": 3870,
      "balsamic": 3871,
      "fresh_marjoram": 3872,
      "##otti": 3873,
      "thai_basil": 3874,
      "##_chocolate_pieces": 3875,
      "samb": 3876,
      "sausages": 3877,
      "##al_o": 3878,
      "##elek": 3879,
      "##ickened_cream": 3880,
      "##read_mix": 3881,
      "thickened_cream": 3882,
      "caramel_topping": 3883,
      "sambal_o": 3884,
      "sambal_oelek": 3885,
      "buns": 3886,
      "lav": 3887,
      "##urd": 3888,
      "chutney": 3889,
      "##hews": 3890,
      "raw_cas": 3891,
      "pita_breads": 3892,
      "raw_cashews": 3893,
      "nect": 3894,
      "##_ar": 3895,
      "##_brandy": 3896,
      "##hio": 3897,
      "baby_ar": 3898,
      "##arines": 3899,
      "nectarines": 3900,
      "miso": 3901,
      "##urrant_jelly": 3902,
      "##resco": 3903,
      "##_fresco": 3904,
      "pork_roast": 3905,
      "red_currant_jelly": 3906,
      "queso_fresco": 3907,
      "##fa": 3908,
      "##alfa": 3909,
      "##_ta": 3910,
      "caramel_sauce": 3911,
      "alfalfa": 3912,
      "spanish_onions": 3913,
      "almond_butter": 3914,
      "silk": 3915,
      "##ba": 3916,
      "##nog": 3917,
      "##en_tofu": 3918,
      "eggnog": 3919,
      "corn_muffin": 3920,
      "lime_peel": 3921,
      "dill_seeds": 3922,
      "strawberry_gelatin": 3923,
      "chipotle_peppers": 3924,
      "spelt_flour": 3925,
      "silken_tofu": 3926,
      "##dit": 3927,
      "##_tra": 3928,
      "##ter_cheese": 3929,
      "boneless_chicken": 3930,
      "simply_potatoes_tra": 3931,
      "##ional_mashed_potatoes": 3932,
      "##enster_cheese": 3933,
      "muenster_cheese": 3934,
      "##ditional_mashed_potatoes": 3935,
      "simply_potatoes_traditional_mashed_potatoes": 3936,
      "marinade": 3937,
      "##_starter": 3938,
      "sourdough_starter": 3939,
      "##pi": 3940,
      "##aked_": 3941,
      "##hiz": 3942,
      "unbaked_": 3943,
      "tamari_soy_sauce": 3944,
      "##pie_shell": 3945,
      "unbaked_pie_shell": 3946,
      "bay_scallops": 3947,
      "coconut_rum": 3948,
      "italian_sausages": 3949,
      "maple_extract": 3950,
      "humm": 3951,
      "##try": 3952,
      "##eberry": 3953,
      "##voy": 3954,
      "##untry": 3955,
      "hot_paprika": 3956,
      "country": 3957,
      "blueberry": 3958,
      "savoy": 3959,
      "parsnip": 3960,
      "hummus": 3961,
      "savoy_cabbage": 3962,
      "gluten": 3963,
      "greens": 3964,
      "cardamom_powder": 3965,
      "pancake_mix": 3966,
      "##icchio": 3967,
      "candied_cherries": 3968,
      "radicchio": 3969,
      "##ba_noodles": 3970,
      "##ls": 3971,
      "##men": 3972,
      "##urls": 3973,
      "spaghetti_noodles": 3974,
      "pasta_shells": 3975,
      "green_enchilada_sauce": 3976,
      "##ments": 3977,
      "nori": 3978,
      "##uffing": 3979,
      "cornish": 3980,
      "sweet_peppers": 3981,
      "##_vegetables": 3982,
      "instant_potato": 3983,
      "green_onion_tops": 3984,
      "cornish_h": 3985,
      "instant_potato_flakes": 3986,
      "##dew": 3987,
      "##y_greens": 3988,
      "##ing_sauce": 3989,
      "honeydew": 3990,
      "##_hock": 3991,
      "french_onion": 3992,
      "bamboo_skewers": 3993,
      "green_lentils": 3994,
      "corn_muffin_mix": 3995,
      "bib": 3996,
      "##lard_": 3997,
      "##b_lettuce": 3998,
      "##_melon": 3999,
      "green_gra": 4000,
      "collard_": 4001,
      "pineapple_slices": 4002,
      "cornbread_mix": 4003,
      "soda_water": 4004,
      "##_tails": 4005,
      "alfalfa_sprouts": 4006,
      "bibb_lettuce": 4007,
      "green_grapes": 4008,
      "collard_greens": 4009,
      "cod": 4010,
      "##issa": 4011,
      "frozen_peas_and_carrots": 4012,
      "peach_schnapps": 4013,
      "apricot_nectar": 4014,
      "halibut_fillets": 4015,
      "##_candies": 4016,
      "harissa": 4017,
      "black_sesam": 4018,
      "gravy": 4019,
      "lamb_chops": 4020,
      "black_sesame_seeds": 4021,
      "blo": 4022,
      "de": 4023,
      "skewers": 4024,
      "##icotti": 4025,
      "soba_noodles": 4026,
      "##e_cocktail": 4027,
      "##_vinaigrette": 4028,
      "##merara": 4029,
      "cooking_sherry": 4030,
      "##juice_cocktail": 4031,
      "##erb_seasoning": 4032,
      "chocolate_curls": 4033,
      "manicotti": 4034,
      "navel_oranges": 4035,
      "apple_butter": 4036,
      "bloo": 4037,
      "demerara": 4038,
      "demerara_sugar": 4039,
      "##erde": 4040,
      "##ened_b": 4041,
      "##_verde": 4042,
      "unsweetened_b": 4043,
      "salsa_verde": 4044,
      "mascarpone": 4045,
      "##aking_chocolate": 4046,
      "unsweetened_baking_chocolate": 4047,
      "##wfish": 4048,
      "green_apples": 4049,
      "##ed_clams": 4050,
      "##liced_almonds": 4051,
      "minced_clams": 4052,
      "toasted_sliced_almonds": 4053,
      "##_of_garlic": 4054,
      "crawfish": 4055,
      "##zer": 4056,
      "champagne_vinegar": 4057,
      "buckwheat_flour": 4058,
      "##ed_lemon": 4059,
      "##_whiskey": 4060,
      "split_peas": 4061,
      "taco_shells": 4062,
      "pretzel": 4063,
      "white_corn_syrup": 4064,
      "honeydew_melon": 4065,
      "kit": 4066,
      "##shiitake_mushrooms": 4067,
      "##ked_sp": 4068,
      "##chen": 4069,
      "dried_shiitake_mushrooms": 4070,
      "cooked_sp": 4071,
      "##ort_ribs": 4072,
      "##flavoring": 4073,
      "##_wrap": 4074,
      "serrano_chili": 4075,
      "nutella": 4076,
      "crisp_rice_cereal": 4077,
      "beef_short_ribs": 4078,
      "kitchen": 4079,
      "cooked_spaghetti": 4080,
      "frozen_vegetables": 4081,
      "string": 4082,
      "bulgur_wheat": 4083,
      "mer": 4084,
      "##atwur": 4085,
      "hot_chili_sauce": 4086,
      "plantain": 4087,
      "chicken_bouillon_powder": 4088,
      "bratwur": 4089,
      "instant_coffee_powder": 4090,
      "##er_berries": 4091,
      "##_cocktail": 4092,
      "red_gra": 4093,
      "pickle_juice": 4094,
      "fruit_cocktail": 4095,
      "red_grapes": 4096,
      "jelly": 4097,
      "cooked_noodles": 4098,
      "ham_hock": 4099,
      "wild_mushrooms": 4100,
      "##e_g": 4101,
      "##uracao": 4102,
      "soup": 4103,
      "blue_curacao": 4104,
      "balsamic_vinaigrette": 4105,
      "bratwursts": 4106,
      "sausag": 4107,
      "##ugula": 4108,
      "##er_cookies": 4109,
      "##orange_peel": 4110,
      "amaretto_liqueur": 4111,
      "baby_arugula": 4112,
      "garlic_pepper": 4113,
      "white_kidney_beans": 4114,
      "##weet_chocolate_pieces": 4115,
      "semisweet_chocolate_pieces": 4116,
      "##azelnut": 4117,
      "steak_seasoning": 4118,
      "garlic_pepper_seasoning": 4119,
      "hom": 4120,
      "##_curd": 4121,
      "##_tomato": 4122,
      "sprit": 4123,
      "papaya": 4124,
      "green_capsicum": 4125,
      "glac": 4126,
      "lavender": 4127,
      "hominy": 4128,
      "sprite": 4129,
      "cub": 4130,
      "esc": 4131,
      "sk": 4132,
      "##e_jelly": 4133,
      "##ello": 4134,
      "apple_jelly": 4135,
      "savory": 4136,
      "cardamom_seeds": 4137,
      "mexican_cheese": 4138,
      "chocolate_ice_cream": 4139,
      "head_of_cabbage": 4140,
      "baby_bok_choy": 4141,
      "escar": 4142,
      "hash_browns": 4143,
      "##t_steaks": 4144,
      "##y_rice_cereal": 4145,
      "ground_meat": 4146,
      "##irt_steaks": 4147,
      "almond_flavoring": 4148,
      "brown_gravy": 4149,
      "serrano_pepper": 4150,
      "arugula_leaves": 4151,
      "pastry_shells": 4152,
      "crispy_rice_cereal": 4153,
      "shortc": 4154,
      "vanilla_frosting": 4155,
      "creme_de_cacao": 4156,
      "skirt_steaks": 4157,
      "brown_gravy_mix": 4158,
      "hav": 4159,
      "jun": 4160,
      "##arti": 4161,
      "##_bone": 4162,
      "##stuffing": 4163,
      "##egments": 4164,
      "prepared_stuffing": 4165,
      "##iper_berries": 4166,
      "tapioca_starch": 4167,
      "##_mince": 4168,
      "apple_pie_spice": 4169,
      "mandarin_orange_segments": 4170,
      "havarti": 4171,
      "juniper_berries": 4172,
      "havarti_cheese": 4173,
      "kir": 4174,
      "nat": 4175,
      "##sch": 4176,
      "##e_cherries": 4177,
      "##_crust": 4178,
      "fresh_peas": 4179,
      "##e_spread": 4180,
      "cornish_hens": 4181,
      "glace_cherries": 4182,
      "kirsch": 4183,
      "mushroom_soup": 4184,
      "proc": 4185,
      "##_r": 4186,
      "##ment": 4187,
      "##walnuts": 4188,
      "##ed_curry_paste": 4189,
      "##essed_c": 4190,
      "strawberry_preserves": 4191,
      "thai_r": 4192,
      "pastry_dough": 4193,
      "chipotle_chiles": 4194,
      "processed_c": 4195,
      "thai_red_curry_paste": 4196,
      "rice_milk": 4197,
      "##ea_pods": 4198,
      "##aby_greens": 4199,
      "##ed_baby_greens": 4200,
      "bacon_fat": 4201,
      "mixed_baby_greens": 4202,
      "banana_peppers": 4203,
      "rey": 4204,
      "##cubes": 4205,
      "##nol": 4206,
      "##ds_wrap": 4207,
      "##ruff": 4208,
      "bread_cubes": 4209,
      "chinese_cabbage": 4210,
      "mushroom_c": 4211,
      "vegan_margarine": 4212,
      "seafood_": 4213,
      "reynol": 4214,
      "##ds_wrap_foil": 4215,
      "reynolds_wrap_foil": 4216,
      "buff": 4217,
      "mill": 4218,
      "pump": 4219,
      "sing": 4220,
      "##al_y": 4221,
      "##_crisco": 4222,
      "##ing_wine": 4223,
      "##ural_y": 4224,
      "##el_bread": 4225,
      "butter_f": 4226,
      "##ickel_bread": 4227,
      "lemonade": 4228,
      "chicken_cutlets": 4229,
      "dried_sp": 4230,
      "##ernickel_bread": 4231,
      "diced_onion": 4232,
      "##lavor_crisco": 4233,
      "thai_fish": 4234,
      "natural_y": 4235,
      "buffalo": 4236,
      "millet": 4237,
      "pumpernickel_bread": 4238,
      "single_cream": 4239,
      "butter_flavor_crisco": 4240,
      "dried_split_peas": 4241,
      "thai_fish_sauce": 4242,
      "natural_yoghurt": 4243,
      "##ung": 4244,
      "spring_onion": 4245,
      "macaroni_noodles": 4246,
      "cit": 4247,
      "cake_mix": 4248,
      "##emeat": 4249,
      "##d_dough": 4250,
      "##e_mustard": 4251,
      "##e_topping": 4252,
      "##_bread_dough": 4253,
      "frozen_bread_dough": 4254,
      "coconut_flour": 4255,
      "mincemeat": 4256,
      "cranberry_": 4257,
      "creole_mustard": 4258,
      "pecorino_cheese": 4259,
      "##udge_topping": 4260,
      "escarole": 4261,
      "mung": 4262,
      "dried_apples": 4263,
      "##e_cob": 4264,
      "corn_on": 4265,
      "##esame_seeds": 4266,
      "jalapeno_chiles": 4267,
      "lamb_shanks": 4268,
      "##_the_cob": 4269,
      "ground_sausage": 4270,
      "processed_cheese": 4271,
      "corn_on_the_cob": 4272,
      "##add": 4273,
      "sliced_apples": 4274,
      "##rust_pastry": 4275,
      "pomegranate_seeds": 4276,
      "figs": 4277,
      "red_snapper_fillets": 4278,
      "shortcrust_pastry": 4279,
      "##addock": 4280,
      "##eh": 4281,
      "##ort_cheese": 4282,
      "##quef": 4283,
      "roquef": 4284,
      "roquefort_cheese": 4285,
      "squ": 4286,
      "lemon_cake_mix": 4287,
      "scotch": 4288,
      "##_fillet": 4289,
      "miniature_chocolate_chips": 4290,
      "green_curry_paste": 4291,
      "mushroom_caps": 4292,
      "jelli": 4293,
      "##o_d": 4294,
      "##hells": 4295,
      "##ed_cranberry": 4296,
      "hot_coffee": 4297,
      "##_of_corn": 4298,
      "instant_mashed_potatoes": 4299,
      "canned_t": 4300,
      "pico_d": 4301,
      "lobsters": 4302,
      "sparkling_water": 4303,
      "##e_gallo": 4304,
      "jellied_cranberry": 4305,
      "canned_tuna": 4306,
      "pico_de_gallo": 4307,
      "jellied_cranberry_sauce": 4308,
      "fil": 4309,
      "##steak": 4310,
      "whole_turkey": 4311,
      "rice_c": 4312,
      "maple_flavoring": 4313,
      "wasabi_powder": 4314,
      "chili_pepper_flakes": 4315,
      "green_cardamom_pods": 4316,
      "parm": 4317,
      "##eck": 4318,
      "dried_mustard": 4319,
      "##ettes": 4320,
      "mexicorn": 4321,
      "orange_bell_peppers": 4322,
      "sandwich_bread": 4323,
      "gingersnap_cookies": 4324,
      "courgettes": 4325,
      "din": 4326,
      "protein": 4327,
      "##ner_rolls": 4328,
      "fresh_cream": 4329,
      "red_enchilada_sauce": 4330,
      "##_cherries": 4331,
      "baby_potatoes": 4332,
      "minced_beef": 4333,
      "pickle_relish": 4334,
      "purple_onions": 4335,
      "dinner_rolls": 4336,
      "protein_powder": 4337,
      "sor": 4338,
      "##e_noodles": 4339,
      "vanilla_flavoring": 4340,
      "##_vodka": 4341,
      "ham_bone": 4342,
      "shell_pasta": 4343,
      "sausage_": 4344,
      "cranberry_juice_cocktail": 4345,
      "fa": 4346,
      "##bles": 4347,
      "##jita": 4348,
      "##utt": 4349,
      "chicken_p": 4350,
      "hot_chili": 4351,
      "fajita": 4352,
      "fajita_seasoning_mix": 4353,
      "##elic": 4354,
      "chicken_tenderloin": 4355,
      "chicken_meat": 4356,
      "plum_tomato": 4357,
      "blood_": 4358,
      "chicken_tenderloins": 4359,
      "bouquet": 4360,
      "flo": 4361,
      "tex": 4362,
      "##_gar": 4363,
      "##vegetabl": 4364,
      "##ze": 4365,
      "##alina": 4366,
      "##ed_chicken": 4367,
      "##ed_vegetabl": 4368,
      "##under": 4369,
      "##ashi": 4370,
      "##_chuck": 4371,
      "beef_chuck": 4372,
      "##e_protein": 4373,
      "##tured_vegetabl": 4374,
      "brown_mustard": 4375,
      "polish": 4376,
      "dry_oregano": 4377,
      "candied_p": 4378,
      "puff_pastry_sheets": 4379,
      "catalina": 4380,
      "pork_butt": 4381,
      "bouquet_gar": 4382,
      "flounder": 4383,
      "textured_vegetabl": 4384,
      "polish_sausage": 4385,
      "catalina_dressing": 4386,
      "bouquet_garni": 4387,
      "textured_vegetable_protein": 4388,
      "clo": 4389,
      "gri": 4390,
      "venison": 4391,
      "##steaks": 4392,
      "fresh_nutmeg": 4393,
      "##ed_croutons": 4394,
      "turkey_sausage": 4395,
      "mixed_berries": 4396,
      "seasoned_croutons": 4397,
      "rutabagas": 4398,
      "pretzel_sticks": 4399,
      "clove": 4400,
      "grits": 4401,
      "##b_of_garlic": 4402,
      "ground_walnuts": 4403,
      "steaks": 4404,
      "peach_preserves": 4405,
      "beef_base": 4406,
      "green_apple": 4407,
      "bulb_of_garlic": 4408,
      "##_paper": 4409,
      "##loss": 4410,
      "##quar": 4411,
      "black_bean": 4412,
      "red_pepper_sauce": 4413,
      "cream_of_potato": 4414,
      "##_stem": 4415,
      "peach_slices": 4416,
      "pickled_ginger": 4417,
      "poblano_pepper": 4418,
      "##lossom": 4419,
      "cream_of_potato_soup": 4420,
      "##_stems": 4421,
      "##ling": 4422,
      "##a_h": 4423,
      "##che": 4424,
      "##go_cheese": 4425,
      "##arina": 4426,
      "##ea_flour": 4427,
      "##_bouquet": 4428,
      "lemon_curd": 4429,
      "corn_c": 4430,
      "##ed_sweet": 4431,
      "dry_basil": 4432,
      "graham_waf": 4433,
      "chickpea_flour": 4434,
      "mashed_sweet": 4435,
      "masa_h": 4436,
      "manche": 4437,
      "kitchen_bouquet": 4438,
      "mashed_sweet_potatoes": 4439,
      "masa_harina": 4440,
      "manchego_cheese": 4441,
      "real": 4442,
      "##miso": 4443,
      "##_maple_syrup": 4444,
      "plum_sauce": 4445,
      "##ava": 4446,
      "horseradish_sauce": 4447,
      "beetroot": 4448,
      "real_maple_syrup": 4449,
      "orange_s": 4450,
      "##_steak": 4451,
      "navel_orange": 4452,
      "rocket": 4453,
      "##ale_bread": 4454,
      "dried_yeast": 4455,
      "stale_bread": 4456,
      "pepperoni_slices": 4457,
      "vanilla_wafer_crumbs": 4458,
      "squid": 4459,
      "##mango": 4460,
      "##weet_chocolate_chips": 4461,
      "green_peppercorns": 4462,
      "smoked_turkey": 4463,
      "bittersweet_chocolate_chips": 4464,
      "ground_fennel": 4465,
      "fine_salt": 4466,
      "country_bread": 4467,
      "bel": 4468,
      "chia": 4469,
      "##_en": 4470,
      "##gian": 4471,
      "##e_shells": 4472,
      "cookies": 4473,
      "sweetcorn": 4474,
      "pie_shells": 4475,
      "roasted_red_pepper": 4476,
      "##ruffl": 4477,
      "belgian": 4478,
      "chia_seeds": 4479,
      "##_endive": 4480,
      "belgian_endive": 4481,
      "sweet_relish": 4482,
      "##rystals": 4483,
      "rice_chex": 4484,
      "cider": 4485,
      "##pectin": 4486,
      "##_pulp": 4487,
      "dried_beef": 4488,
      "##e_cake_mix": 4489,
      "liquid_pectin": 4490,
      "spice_cake_mix": 4491,
      "mushroom_pieces": 4492,
      "frang": 4493,
      "kum": 4494,
      "##_lit": 4495,
      "##pulp": 4496,
      "##cake": 4497,
      "##e_steaks": 4498,
      "cool_whip_lit": 4499,
      "tamarind_pulp": 4500,
      "green_cardamoms": 4501,
      "cube_steaks": 4502,
      "seafood_s": 4503,
      "##elico": 4504,
      "frangelico": 4505,
      "cool_whip_lite": 4506,
      "trout": 4507,
      "##runes": 4508,
      "##uet": 4509,
      "##uette": 4510,
      "##_split_peas": 4511,
      "yellow_split_peas": 4512,
      "##ed_prunes": 4513,
      "french_bag": 4514,
      "chicken_breast_tenders": 4515,
      "pitted_prunes": 4516,
      "grapefruits": 4517,
      "chicken_parts": 4518,
      "french_baguette": 4519,
      "dashi": 4520,
      "fresh_figs": 4521,
      "cooked_egg_noodles": 4522,
      "steel": 4523,
      "popcorn": 4524,
      "##_cut_oats": 4525,
      "plantains": 4526,
      "steel_cut_oats": 4527,
      "##med_": 4528,
      "##y_bacon": 4529,
      "##eamed_": 4530,
      "chan": 4531,
      "red_apple": 4532,
      "chicken_stock_cube": 4533,
      "streak": 4534,
      "steamed_": 4535,
      "french_onion_soup": 4536,
      "streaky_bacon": 4537,
      "steamed_rice": 4538,
      "##_bon": 4539,
      "pineapple_rings": 4540,
      "ancho_chilies": 4541,
      "irish_whiskey": 4542,
      "##_sa": 4543,
      "pizza_crust": 4544,
      "haddock": 4545,
      "melon": 4546,
      "tater_tots": 4547,
      "##ilton": 4548,
      "celery_root": 4549,
      "hot_peppers": 4550,
      "raw_rice": 4551,
      "cream_cheese_frosting": 4552,
      "carob": 4553,
      "##akes": 4554,
      "stilton": 4555,
      "poun": 4556,
      "stilton_cheese": 4557,
      "vermouth": 4558,
      "##ura": 4559,
      "##umin_seeds": 4560,
      "hot_f": 4561,
      "italian_h": 4562,
      "liqueur": 4563,
      "whole_cumin_seeds": 4564,
      "temp": 4565,
      "agave_syrup": 4566,
      "hidden_valley_original_ranch_dressing": 4567,
      "italian_herb_seasoning": 4568,
      "fran": 4569,
      "##sour": 4570,
      "##wild_": 4571,
      "##_and_sour": 4572,
      "sweet_and_sour": 4573,
      "yellow_mustard_seeds": 4574,
      "cooked_wild_": 4575,
      "canned_corn": 4576,
      "sweet_pickles": 4577,
      "crescent_roll": 4578,
      "##ruffle_oil": 4579,
      "sweet_and_sour_sauce": 4580,
      "cooked_wild_rice": 4581,
      "##her": 4582,
      "chicken_soup": 4583,
      "ang": 4584,
      "chocolate_frosting": 4585,
      "habanero_pepper": 4586,
      "crescent_roll_dough": 4587,
      "foc": 4588,
      "##cia": 4589,
      "corn_t": 4590,
      "##accia": 4591,
      "##edge": 4592,
      "beetroots": 4593,
      "focaccia": 4594,
      "focaccia_bread": 4595,
      "gn": 4596,
      "mahi": 4597,
      "##stra": 4598,
      "##_mahi": 4599,
      "##rands": 4600,
      "##occhi": 4601,
      "##_strands": 4602,
      "banana_liqueur": 4603,
      "seasoned_pepper": 4604,
      "saffron_strands": 4605,
      "purple_onion": 4606,
      "string_beans": 4607,
      "gnocchi": 4608,
      "mahi_mahi": 4609,
      "preser": 4610,
      "sol": 4611,
      "##_rings": 4612,
      "##ved_lemon": 4613,
      "lemon_t": 4614,
      "dried_mushrooms": 4615,
      "spam": 4616,
      "##e_fillets": 4617,
      "candy_can": 4618,
      "chocolate_wafer_crumbs": 4619,
      "preserved_lemon": 4620,
      "sole_fillets": 4621,
      "##dfish": 4622,
      "##ordfish": 4623,
      "lemon_gelatin": 4624,
      "##_of_p": 4625,
      "##kie_crumbs": 4626,
      "swordfish": 4627,
      "french_rolls": 4628,
      "cooked_beef": 4629,
      "sea_b": 4630,
      "peppermint_candies": 4631,
      "corn_chex": 4632,
      "custard_": 4633,
      "cake": 4634,
      "rump": 4635,
      "##tt": 4636,
      "##_pod": 4637,
      "litt": 4638,
      "chili_past": 4639,
      "cola": 4640,
      "##ith_garlic": 4641,
      "chocolate_sp": 4642,
      "hamburger_meat": 4643,
      "##e_with_garlic": 4644,
      "##leneck": 4645,
      "custard_powder": 4646,
      "rump_roast": 4647,
      "littleneck": 4648,
      "chili_paste_with_garlic": 4649,
      "chocolate_sprinkles": 4650,
      "littleneck_clams": 4651,
      "finger": 4652,
      "relish": 4653,
      "wax": 4654,
      "##oli": 4655,
      "beef_mince": 4656,
      "mixed_fruit": 4657,
      "##ling_potatoes": 4658,
      "##ura_b": 4659,
      "fingerling_potatoes": 4660,
      "tortellini": 4661,
      "##bet": 4662,
      "##ed_rum": 4663,
      "##rounds": 4664,
      "vanilla_vodka": 4665,
      "white_peppercorns": 4666,
      "dry_lentils": 4667,
      "ground_paprika": 4668,
      "spiced_rum": 4669,
      "pastry_flour": 4670,
      "espresso_powder": 4671,
      "blueberry_pie_filling": 4672,
      "crawfish_tails": 4673,
      "cot": 4674,
      "fried_": 4675,
      "rabb": 4676,
      "vinaigrette": 4677,
      "##ij": 4678,
      "##gate": 4679,
      "##e_ri": 4680,
      "##heese_dressing": 4681,
      "butter_lettuce": 4682,
      "dried_blueberries": 4683,
      "penne_ri": 4684,
      "blue_cheese_dressing": 4685,
      "cotij": 4686,
      "penne_rigate": 4687,
      "cotija_cheese": 4688,
      "win": 4689,
      "##dcake": 4690,
      "saltines": 4691,
      "##ghum": 4692,
      "frozen_meat": 4693,
      "pig": 4694,
      "ham_steaks": 4695,
      "chocolate_coo": 4696,
      "orange_blossom": 4697,
      "wasabi_paste": 4698,
      "sorghum": 4699,
      "poundcake": 4700,
      "winter": 4701,
      "frozen_meatballs": 4702,
      "orange_blossom_water": 4703,
      "frozen_t": 4704,
      "beefsteak": 4705,
      "gingersna": 4706,
      "nutritional_yeast_flakes": 4707,
      "flounder_fillets": 4708,
      "sea_bass": 4709,
      "frozen_tater_tots": 4710,
      "beefsteak_tomatoes": 4711,
      "gingersnaps": 4712,
      "bran": 4713,
      "grape_jelly": 4714,
      "tempeh": 4715,
      "bran_flakes": 4716,
      "hash_brown": 4717,
      "##fort": 4718,
      "##_com": 4719,
      "##uthern": 4720,
      "##e_seed_oil": 4721,
      "southern": 4722,
      "sweet_peas": 4723,
      "##quinoa": 4724,
      "cooked_quinoa": 4725,
      "sesame_seed_oil": 4726,
      "cracked_": 4727,
      "merlot": 4728,
      "##_comfort": 4729,
      "southern_comfort": 4730,
      "cro": 4731,
      "chee": 4732,
      "vegg": 4733,
      "##ost": 4734,
      "##iano": 4735,
      "##z_w": 4736,
      "##ing_salt": 4737,
      "##rumbles": 4738,
      "##igiano": 4739,
      "parmigiano": 4740,
      "angost": 4741,
      "candy_canes": 4742,
      "##ura_bitters": 4743,
      "winter_squash": 4744,
      "cheez_w": 4745,
      "angostura_bitters": 4746,
      "cheez_whiz": 4747,
      "hazelnut": 4748,
      "vinaigr": 4749,
      "##pe_juice": 4750,
      "white_gra": 4751,
      "##ette_dressing": 4752,
      "##_dip": 4753,
      "turkey_broth": 4754,
      "seasoned_flour": 4755,
      "guava": 4756,
      "chocolate_wafers": 4757,
      "vinaigrette_dressing": 4758,
      "white_grape_juice": 4759,
      "coarse_sugar": 4760,
      "##arts_of_p": 4761,
      "raw_honey": 4762,
      "candies": 4763,
      "vegan_mayonnaise": 4764,
      "root": 4765,
      "hearts_of_p": 4766,
      "seafood_seasoning": 4767,
      "hearts_of_palm": 4768,
      "dital": 4769,
      "##areri": 4770,
      "spareri": 4771,
      "grape_juice": 4772,
      "ground_pecans": 4773,
      "##_sprig": 4774,
      "oyster_mushrooms": 4775,
      "cheese_slices": 4776,
      "candied_orange_peel": 4777,
      "ditalini": 4778,
      "spareribs": 4779,
      "fry": 4780,
      "pea_pods": 4781,
      "##alang": 4782,
      "sugar_syrup": 4783,
      "cream_sherry": 4784,
      "pie_filling": 4785,
      "whipped_cream_cheese": 4786,
      "orange_sections": 4787,
      "##zu": 4788,
      "##ants": 4789,
      "turkey_": 4790,
      "pomegranate_": 4791,
      "frozen_lemonade": 4792,
      "graham_wafer_crumbs": 4793,
      "galang": 4794,
      "##p_molasses": 4795,
      "##macaroni": 4796,
      "##d_rounds": 4797,
      "chestnuts": 4798,
      "white_miso": 4799,
      "cooked_macaroni": 4800,
      "blackstra": 4801,
      "orange_gelatin": 4802,
      "pork_ribs": 4803,
      "pita_bread_rounds": 4804,
      "galangal": 4805,
      "blackstrap_molasses": 4806,
      "suet": 4807,
      "##lin": 4808,
      "##alla": 4809,
      "##_brisket": 4810,
      "challa": 4811,
      "##e_sesame_seeds": 4812,
      "white_sesame_seeds": 4813,
      "corned_beef_brisket": 4814,
      "challah": 4815,
      "baking_chocolate": 4816,
      "##_dal": 4817,
      "baby_clams": 4818,
      "##e_fudge_topping": 4819,
      "chocolate_fudge_topping": 4820,
      "potato_flakes": 4821,
      "gher": 4822,
      "ud": 4823,
      "##tzer": 4824,
      "##on_noodles": 4825,
      "green_tea": 4826,
      "ground_coffee": 4827,
      "mint_extract": 4828,
      "seltzer": 4829,
      "spicy_mustard": 4830,
      "gherkin": 4831,
      "udon_noodles": 4832,
      "seltzer_water": 4833,
      "wood_c": 4834,
      "##cello": 4835,
      "##vermicelli": 4836,
      "##moncello": 4837,
      "fresh_mango": 4838,
      "##_wing_sauce": 4839,
      "##e_crystals": 4840,
      "limoncello": 4841,
      "rice_vermicelli": 4842,
      "lamb_shoulder": 4843,
      "##_bean_sprouts": 4844,
      "chocolate_wafer_cookies": 4845,
      "instant_coffee_crystals": 4846,
      "bouillon_cubes": 4847,
      "buffalo_wing_sauce": 4848,
      "mung_bean_sprouts": 4849,
      "wood_chips": 4850,
      "##yc": 4851,
      "chicken_sausage": 4852,
      "##molasses": 4853,
      "blood_orang": 4854,
      "pomegranate_molasses": 4855,
      "chips": 4856,
      "kar": 4857,
      "##o_syrup": 4858,
      "##venison": 4859,
      "butter_flavoring": 4860,
      "ground_venison": 4861,
      "vanilla_pod": 4862,
      "##eets": 4863,
      "canning_salt": 4864,
      "liquid": 4865,
      "rock_salt": 4866,
      "tangerines": 4867,
      "maraschino_cherry_juice": 4868,
      "karo_syrup": 4869,
      "ris": 4870,
      "##atti": 4871,
      "fresh_coconut": 4872,
      "black_tea": 4873,
      "rack": 4874,
      "tarragon_leaves": 4875,
      "gelatin_powder": 4876,
      "coffee_ice_cream": 4877,
      "##quares": 4878,
      "corn_tortilla_chips": 4879,
      "##atties": 4880,
      "pudding": 4881,
      "flour_t": 4882,
      "##bergin": 4883,
      "aubergin": 4884,
      "flour_tortilla": 4885,
      "aubergines": 4886,
      "##cchi": 4887,
      "orecchi": 4888,
      "orecchiette": 4889,
      "bo": 4890,
      "marmalade": 4891,
      "par": 4892,
      "poblano_chile": 4893,
      "passata": 4894,
      "glaze": 4895,
      "shortb": 4896,
      "hot_chili_oil": 4897,
      "frank": 4898,
      "rabbit": 4899,
      "celer": 4900,
      "##iac": 4901,
      "##xing_wine": 4902,
      "shao": 4903,
      "chicken_stock_powder": 4904,
      "flax_seed_oil": 4905,
      "halibut_steaks": 4906,
      "semolina_flour": 4907,
      "mandarin_orange_sections": 4908,
      "hidden_valley_original_ranch_seasoning_mix": 4909,
      "sorghum_flour": 4910,
      "croiss": 4911,
      "celeriac": 4912,
      "shaoxing_wine": 4913,
      "ket": 4914,
      "##fur": 4915,
      "##jap": 4916,
      "##anis": 4917,
      "##loom": 4918,
      "##_manis": 4919,
      "##tos": 4920,
      "##irloom": 4921,
      "heirloom": 4922,
      "rutabaga": 4923,
      "frankfur": 4924,
      "ketjap": 4925,
      "heirloom_tomatoes": 4926,
      "ketjap_manis": 4927,
      "##_ac": 4928,
      "##_sal": 4929,
      "##etti": 4930,
      "shrimp_paste": 4931,
      "amaretti": 4932,
      "tap_water": 4933,
      "chicken_soup_base": 4934,
      "swordfish_steaks": 4935,
      "hash_brown_potatoes": 4936,
      "root_beer": 4937,
      "##_acid": 4938,
      "##paper": 4939,
      "salt_substitute": 4940,
      "apple_juice_concentrate": 4941,
      "chicken_stock_cubes": 4942,
      "rice_paper": 4943,
      "cherry_preserves": 4944,
      "ham_hocks": 4945,
      "##vi": 4946,
      "fresh_cherries": 4947,
      "buttered_bread_crumbs": 4948,
      "##ups": 4949,
      "##ite": 4950,
      "frozen_shrimp": 4951,
      "crepes": 4952,
      "apricot_brandy": 4953,
      "oyster_crackers": 4954,
      "head_of_garlic": 4955,
      "lobster_meat": 4956,
      "frankfurters": 4957,
      "##otto": 4958,
      "##_marin": 4959,
      "##ados": 4960,
      "grape_leaves": 4961,
      "browning_sauce": 4962,
      "cool_whip_fre": 4963,
      "toasted_h": 4964,
      "teriyaki_marin": 4965,
      "cream_cheese_spread": 4966,
      "mahi_mahi_fillets": 4967,
      "gherkins": 4968,
      "risotto": 4969,
      "cool_whip_free": 4970,
      "toasted_hazelnuts": 4971,
      "teriyaki_marinade": 4972,
      "risotto_rice": 4973,
      "flak": 4974,
      "fav": 4975,
      "sto": 4976,
      "##ver": 4977,
      "##ar_gum": 4978,
      "##_crumbs": 4979,
      "##ut_beer": 4980,
      "##chment": 4981,
      "##ed_sea_salt": 4982,
      "##itas": 4983,
      "scallion_tops": 4984,
      "cherry_juice": 4985,
      "red_chili_paste": 4986,
      "guar_gum": 4987,
      "parchment": 4988,
      "flaked_sea_salt": 4989,
      "fava_beans": 4990,
      "stout_beer": 4991,
      "parchment_paper": 4992,
      "##pitas": 4993,
      "##vil": 4994,
      "##ervil": 4995,
      "##_pepper_sauce": 4996,
      "chervil": 4997,
      "##ot_pepper_sauce": 4998,
      "##lack_beans": 4999,
      "salmon_fillet": 5000,
      "pepitas": 5001,
      "raspberry_liqueur": 5002,
      "##ed_hot_pepper_sauce": 5003,
      "bottled_hot_pepper_sauce": 5004,
      "boc": 5005,
      "cabb": 5006,
      "hallo": 5007,
      "##i_cheese": 5008,
      "##gels": 5009,
      "bagels": 5010,
      "##umi_cheese": 5011,
      "chili_with": 5012,
      "##concini": 5013,
      "##red_pepper_sauce": 5014,
      "##_skins": 5015,
      "white_sauce": 5016,
      "boiled_potatoes": 5017,
      "baby_greens": 5018,
      "##y_port": 5019,
      "##e_whiz": 5020,
      "liquid_smoke_flavoring": 5021,
      "snow_p": 5022,
      "hot_red_pepper_sauce": 5023,
      "cheese_whiz": 5024,
      "ruby_port": 5025,
      "preserved_lemons": 5026,
      "bocconcini": 5027,
      "cabbage_leaves": 5028,
      "halloumi_cheese": 5029,
      "chili_with_beans": 5030,
      "be": 5031,
      "cal": 5032,
      "##vados": 5033,
      "fresh_yeast": 5034,
      "pepper_sauce": 5035,
      "orange_flower": 5036,
      "sticks": 5037,
      "potato_flour": 5038,
      "spanish_olives": 5039,
      "seafood": 5040,
      "calvados": 5041,
      "orange_flower_water": 5042,
      "pectin": 5043,
      "##eads": 5044,
      "##_balls": 5045,
      "##ed_clam": 5046,
      "##ecorat": 5047,
      "basil_sprigs": 5048,
      "rice_b": 5049,
      "dried_coriander": 5050,
      "bottled_clam": 5051,
      "bottled_clam_juice": 5052,
      "dream": 5053,
      "suc": 5054,
      "sus": 5055,
      "##anat": 5056,
      "##hi_rice": 5057,
      "##_flow": 5058,
      "chicken_fillets": 5059,
      "granulated_onion": 5060,
      "roasted_almonds": 5061,
      "spring_roll": 5062,
      "english_mustard": 5063,
      "soda_crackers": 5064,
      "lavender_flow": 5065,
      "candied_pineapple": 5066,
      "carob_powder": 5067,
      "dream_whip": 5068,
      "sucanat": 5069,
      "sushi_rice": 5070,
      "spring_roll_wrappers": 5071,
      "lavender_flowers": 5072,
      "##_cranberries": 5073,
      "frozen_cranberries": 5074,
      "cayenne_pepper_sauce": 5075,
      "cock": 5076,
      "currant_jelly": 5077,
      "apricot_halves": 5078,
      "chinese_noodles": 5079,
      "sausage_lin": 5080,
      "croissants": 5081,
      "sausage_links": 5082,
      "pac": 5083,
      "##izer": 5084,
      "##icante_sauce": 5085,
      "pie_p": 5086,
      "##e_picante_sauce": 5087,
      "##e_dough": 5088,
      "##_tenderizer": 5089,
      "meat_tenderizer": 5090,
      "pace_picante_sauce": 5091,
      "ear": 5092,
      "mes": 5093,
      "para": 5094,
      "seeds": 5095,
      "##net": 5096,
      "##gest": 5097,
      "##in_w": 5098,
      "##e_ment": 5099,
      "##_pl": 5100,
      "salt_water": 5101,
      "##ote": 5102,
      "vanilla_chips": 5103,
      "##_walnuts": 5104,
      "##iscu": 5105,
      "shoy": 5106,
      "cornich": 5107,
      "sweet_vermouth": 5108,
      "ale": 5109,
      "ginger_juice": 5110,
      "black_walnuts": 5111,
      "digest": 5112,
      "##ffin_w": 5113,
      "pork_fillets": 5114,
      "##ive_b": 5115,
      "lasagna_sheets": 5116,
      "##clun": 5117,
      "purple_cabbage": 5118,
      "creme_de_ment": 5119,
      "##udge": 5120,
      "ciabatta_rolls": 5121,
      "scotch_bon": 5122,
      "kumara": 5123,
      "ear_of_corn": 5124,
      "mesclun": 5125,
      "paraffin_w": 5126,
      "##net_pepper": 5127,
      "##iscuits": 5128,
      "shoyu": 5129,
      "digestive_b": 5130,
      "creme_de_menthe": 5131,
      "scotch_bonnet_pepper": 5132,
      "paraffin_wax": 5133,
      "digestive_biscuits": 5134,
      "extract": 5135,
      "##ix_cereal": 5136,
      "dark_cocoa": 5137,
      "skim_milk_powder": 5138,
      "##read_coo": 5139,
      "wheat_berries": 5140,
      "butterscotch_schnapps": 5141,
      "watercress_leaves": 5142,
      "candy_corn": 5143,
      "crispix_cereal": 5144,
      "shortbread_coo": 5145,
      "shortbread_cookies": 5146,
      "##ile": 5147,
      "##reacl": 5148,
      "##_boil": 5149,
      "blackening": 5150,
      "##kielbasa": 5151,
      "##e_paste": 5152,
      "broccoli_ra": 5153,
      "canned_chicken": 5154,
      "peach_nectar": 5155,
      "french_beans": 5156,
      "pink": 5157,
      "cheese_sauce": 5158,
      "frozen_peaches": 5159,
      "achi": 5160,
      "veal_cutlets": 5161,
      "crab_boil": 5162,
      "turkey_kielbasa": 5163,
      "cocktail": 5164,
      "cornichons": 5165,
      "##reacle": 5166,
      "blackening_seasoning": 5167,
      "bra": 5168,
      "ears": 5169,
      "pot": 5170,
      "##ibs": 5171,
      "##zil": 5172,
      "##ones": 5173,
      "##rips": 5174,
      "##rami": 5175,
      "##na_dal": 5176,
      "chicken_st": 5177,
      "pineapple_p": 5178,
      "strawberry_ice_cream": 5179,
      "fruit_juice": 5180,
      "pastrami": 5181,
      "summer_sa": 5182,
      "coffee_beans": 5183,
      "channa_dal": 5184,
      "chocolate_cookie_crumbs": 5185,
      "brazil": 5186,
      "ears_of_corn": 5187,
      "chicken_strips": 5188,
      "pineapple_preserves": 5189,
      "summer_savory": 5190,
      "brazil_nuts": 5191,
      "por": 5192,
      "se": 5193,
      "##pecans": 5194,
      "##mmon": 5195,
      "##_patties": 5196,
      "##ridg": 5197,
      "lemon_yogurt": 5198,
      "##itan": 5199,
      "whole_pecans": 5200,
      "black_c": 5201,
      "blackberry": 5202,
      "color": 5203,
      "almond_essence": 5204,
      "##rice_flour": 5205,
      "##ric_acid": 5206,
      "dill_sprigs": 5207,
      "##ed_sprinkles": 5208,
      "##ement": 5209,
      "flat_bread": 5210,
      "beef_bouillon_powder": 5211,
      "sweet_rice_flour": 5212,
      "clement": 5213,
      "##bergine": 5214,
      "tamarind_juice": 5215,
      "stevia_powder": 5216,
      "aubergine": 5217,
      "citric_acid": 5218,
      "seitan": 5219,
      "colored_sprinkles": 5220,
      "farm": 5221,
      "lea": 5222,
      "truffle_oil": 5223,
      "##s_of_lamb": 5224,
      "##be": 5225,
      "##er_cheese": 5226,
      "##_sor": 5227,
      "##ed_espresso": 5228,
      "hot_cocoa": 5229,
      "##kie_mix": 5230,
      "thai_chiles": 5231,
      "brewed_espresso": 5232,
      "vanilla_bean_paste": 5233,
      "racks_of_lamb": 5234,
      "broccoli_rabe": 5235,
      "farmer_cheese": 5236,
      "##_sorbet": 5237,
      "pern": 5238,
      "##edamame": 5239,
      "##sin": 5240,
      "honey_mustard_": 5241,
      "##_spread": 5242,
      "cooking_wine": 5243,
      "jalapeno_juice": 5244,
      "soy_yogurt": 5245,
      "##ickle": 5246,
      "cardamoms": 5247,
      "boursin": 5248,
      "cheese_spread": 5249,
      "vanilla_wafer_cookies": 5250,
      "##_tips": 5251,
      "frozen_edamame": 5252,
      "gingersnap_crumbs": 5253,
      "haddock_fillets": 5254,
      "pernod": 5255,
      "honey_mustard_dressing": 5256,
      "boursin_cheese": 5257,
      "ess": 5258,
      "##hazelnuts": 5259,
      "##ky": 5260,
      "##al_oil": 5261,
      "##rozen": 5262,
      "##enti": 5263,
      "##_bars": 5264,
      "onion_juice": 5265,
      "ground_hazelnuts": 5266,
      "yellow_tomatoes": 5267,
      "##e_de_": 5268,
      "sour_mix": 5269,
      "vanilla_frozen": 5270,
      "black_bean_sauce": 5271,
      "essenti": 5272,
      "##al_oils": 5273,
      "vanilla_frozen_yogurt": 5274,
      "essential_oils": 5275,
      "dori": 5276,
      "fine_sugar": 5277,
      "##pe": 5278,
      "##cass": 5279,
      "##ber_on": 5280,
      "dried_beans": 5281,
      "##_carcass": 5282,
      "tahini_paste": 5283,
      "fiber_on": 5284,
      "duck_breasts": 5285,
      "##loth": 5286,
      "lobster_tails": 5287,
      "sea_bass_fillets": 5288,
      "doritos": 5289,
      "fiber_one_cereal": 5290,
      "bro": 5291,
      "cello": 5292,
      "gum": 5293,
      "##dro": 5294,
      "##_relish": 5295,
      "##phan": 5296,
      "##sicum": 5297,
      "##logna": 5298,
      "##hey": 5299,
      "##uce_mix": 5300,
      "sweet_sherry": 5301,
      "ham_slices": 5302,
      "dill_relish": 5303,
      "capsicum": 5304,
      "mustard_greens": 5305,
      "endive": 5306,
      "lime_wedge": 5307,
      "anchovy_fillet": 5308,
      "dill_pickle": 5309,
      "espresso_coffee": 5310,
      "brown_rice_syrup": 5311,
      "file_powder": 5312,
      "sausage_meat": 5313,
      "hot_fudge": 5314,
      "bologna": 5315,
      "cellophan": 5316,
      "gumdro": 5317,
      "cellophane_noodles": 5318,
      "decorat": 5319,
      "ou": 5320,
      "porcini_mushrooms": 5321,
      "tartar": 5322,
      "##ke": 5323,
      "##at_masala": 5324,
      "##_pepperoni": 5325,
      "chat_masala": 5326,
      "##_macaroni": 5327,
      "##astry": 5328,
      "cheesec": 5329,
      "dried_pineapple": 5330,
      "turkey_pepperoni": 5331,
      "qua": 5332,
      "star_fruit": 5333,
      "sparkling_wine": 5334,
      "shell_macaroni": 5335,
      "pie_pastry": 5336,
      "ouzo": 5337,
      "tartar_sauce": 5338,
      "dul": 5339,
      "##lec": 5340,
      "##ce_de_": 5341,
      "##e_oats": 5342,
      "##garita": 5343,
      "margarita": 5344,
      "coke": 5345,
      "mango_powder": 5346,
      "mango_nectar": 5347,
      "turkey_gravy": 5348,
      "popped_corn": 5349,
      "veal_stock": 5350,
      "fried_onions": 5351,
      "porridg": 5352,
      "dulce_de_": 5353,
      "##leche": 5354,
      "margarita_mix": 5355,
      "porridge_oats": 5356,
      "dulce_de_leche": 5357,
      "##op": 5358,
      "##olive_oil": 5359,
      "##lan": 5360,
      "##somme": 5361,
      "##lis": 5362,
      "sugar_coo": 5363,
      "dried_tomatoes": 5364,
      "dried_shrimp": 5365,
      "pecan_nuts": 5366,
      "consomme": 5367,
      "cherry_gelatin": 5368,
      "##ack_ribs": 5369,
      "swe": 5370,
      "pure_olive_oil": 5371,
      "peas_and_carrots": 5372,
      "caramel_candies": 5373,
      "wonton_skins": 5374,
      "baby_back_ribs": 5375,
      "pork_belly": 5376,
      "citron": 5377,
      "pot_roast": 5378,
      "sugar_cookie_mix": 5379,
      "drippings": 5380,
      "pers": 5381,
      "##immon": 5382,
      "##ine_juice": 5383,
      "##_slaw": 5384,
      "chab": 5385,
      "chay": 5386,
      "##_mushroom": 5387,
      "dried_orange_peel": 5388,
      "broccoli_slaw": 5389,
      "soy_margarine": 5390,
      "portabella_mushroom": 5391,
      "candied_fruit": 5392,
      "vegan_butter": 5393,
      "meringu": 5394,
      "lemon_thyme": 5395,
      "blood_oranges": 5396,
      "persimmon": 5397,
      "chablis": 5398,
      "broccoli_slaw_mix": 5399,
      "##non": 5400,
      "##_salsa": 5401,
      "##et_m": 5402,
      "bagel": 5403,
      "liver": 5404,
      "##_spice": 5405,
      "hot_chicken": 5406,
      "##isin_bread": 5407,
      "raisin_bread": 5408,
      "pork_cutlets": 5409,
      "rosemary_sprig": 5410,
      "spring_greens": 5411,
      "lime_gelatin": 5412,
      "##ignon": 5413,
      "tost": 5414,
      "anise_extract": 5415,
      "bouillon_cube": 5416,
      "filet_m": 5417,
      "trout_fillets": 5418,
      "hot_chicken_stock": 5419,
      "filet_mignon": 5420,
      "calam": 5421,
      "i_can": 5422,
      "nig": 5423,
      "##t_b": 5424,
      "##lings": 5425,
      "##ave": 5426,
      "##y_w": 5427,
      "##'t_b": 5428,
      "##e_it": 5429,
      "##lice": 5430,
      "##ot_butter": 5431,
      "sweet_soy_sauce": 5432,
      "alum": 5433,
      "cooked_lentils": 5434,
      "##ella_seeds": 5435,
      "dipping": 5436,
      "##_not_butter": 5437,
      "almond_liqueur": 5438,
      "canned_milk": 5439,
      "red_chili_sauce": 5440,
      "turkey_meat": 5441,
      "salad_leaves": 5442,
      "flank_steak": 5443,
      "agave": 5444,
      "cheese_crackers": 5445,
      "##eliev": 5446,
      "angel_food_cake_mix": 5447,
      "##'s_not_butter": 5448,
      "cracked_wheat": 5449,
      "quail": 5450,
      "calamari": 5451,
      "i_can't_b": 5452,
      "nigella_seeds": 5453,
      "##e_it's_not_butter": 5454,
      "##elieve_it's_not_butter": 5455,
      "i_can't_believe_it's_not_butter": 5456,
      "flavoring": 5457,
      "tapen": 5458,
      "##hazelnut": 5459,
      "##iki": 5460,
      "##ali": 5461,
      "##or_sugar": 5462,
      "chicken_gravy": 5463,
      "cream_of_wheat": 5464,
      "orange_w": 5465,
      "broccoli_stems": 5466,
      "cherry_brandy": 5467,
      "sour_cherries": 5468,
      "chocolate_hazelnut": 5469,
      "pige": 5470,
      "gumdrops": 5471,
      "decorator_sugar": 5472,
      "tapenade": 5473,
      "chocolate_hazelnut_spread": 5474,
      "ad": 5475,
      "aj": 5476,
      "##agg": 5477,
      "vanilla_powder": 5478,
      "spong": 5479,
      "##quats": 5480,
      "mustard_oil": 5481,
      "pumpkin_pie_filling": 5482,
      "##_sheet": 5483,
      "maple_sugar": 5484,
      "nacho": 5485,
      "wax_beans": 5486,
      "amaretti_cookies": 5487,
      "achiot": 5488,
      "sponge_c": 5489,
      "jagg": 5490,
      "ox": 5491,
      "puree": 5492,
      "snap_peas": 5493,
      "##ery": 5494,
      "ground_ham": 5495,
      "##olini": 5496,
      "##adas": 5497,
      "cream_of_shrimp": 5498,
      "peanut_sauce": 5499,
      "blue_f": 5500,
      "##ed_peel": 5501,
      "mixed_peel": 5502,
      "peach_pie_filling": 5503,
      "##y_seed_": 5504,
      "poppy_seed_": 5505,
      "pizza_seasoning": 5506,
      "sumac": 5507,
      "passion_fruit_pulp": 5508,
      "tostadas": 5509,
      "jaggery": 5510,
      "cream_of_shrimp_soup": 5511,
      "blue_food_coloring": 5512,
      "dump": 5513,
      "oliv": 5514,
      "preserves": 5515,
      "##eral": 5516,
      "lemonade_concentrate": 5517,
      "brown_sugar_substitute": 5518,
      "##ecial": 5519,
      "special": 5520,
      "coconut_water": 5521,
      "soybeans": 5522,
      "rum_flavoring": 5523,
      "##risee": 5524,
      "##tails": 5525,
      "##assis": 5526,
      "##_k_cereal": 5527,
      "mineral": 5528,
      "bottled_lemon": 5529,
      "creme_de_cassis": 5530,
      "cheesecloth": 5531,
      "oxtails": 5532,
      "special_k_cereal": 5533,
      "mineral_water": 5534,
      "bottled_lemon_juice": 5535,
      "cacao": 5536,
      "frisee": 5537,
      "goo": 5538,
      "galli": 5539,
      "##herb_seasoning": 5540,
      "##ie_c": 5541,
      "##ing_oil": 5542,
      "garlic_and_": 5543,
      "dry_bread": 5544,
      "##usks": 5545,
      "##ham_crackers": 5546,
      "turkey_cutlets": 5547,
      "kale_leaves": 5548,
      "pan_drippings": 5549,
      "cooked_broccoli": 5550,
      "##graham_crackers": 5551,
      "brine": 5552,
      "chocolate_graham_crackers": 5553,
      "barley_flour": 5554,
      "mung_beans": 5555,
      "veggie_c": 5556,
      "frying_oil": 5557,
      "swede": 5558,
      "galliano": 5559,
      "garlic_and_herb_seasoning": 5560,
      "veggie_crumbles": 5561,
      "gl": 5562,
      "gro": 5563,
      "hing": 5564,
      "tz": 5565,
      "##_lettuce_leaves": 5566,
      "##frosting": 5567,
      "##ziki": 5568,
      "##on_peas": 5569,
      "##atziki": 5570,
      "##uri": 5571,
      "butter_lettuce_leaves": 5572,
      "white_frosting": 5573,
      "cooki": 5574,
      "egg_wash": 5575,
      "plum_jam": 5576,
      "banana_extract": 5577,
      "straw_mushrooms": 5578,
      "chocolate_milk": 5579,
      "coleslaw_dressing": 5580,
      "french_onion_dip": 5581,
      "hot_fudge_topping": 5582,
      "wax_paper": 5583,
      "##ycer": 5584,
      "snow_pea_pods": 5585,
      "pigeon_peas": 5586,
      "glycer": 5587,
      "tzatziki": 5588,
      "custard": 5589,
      "##_hearts": 5590,
      "##zip": 5591,
      "##_sna": 5592,
      "##roats": 5593,
      "##ethi": 5594,
      "celery_hearts": 5595,
      "sweet_pepper": 5596,
      "marzip": 5597,
      "##_groats": 5598,
      "orange_food_coloring": 5599,
      "canola_oil_cooking_spray": 5600,
      "##wheat_groats": 5601,
      "jalapeno_jelly": 5602,
      "coriander_sprigs": 5603,
      "capellini": 5604,
      "chopped_tomato": 5605,
      "english_peas": 5606,
      "buckwheat_groats": 5607,
      "courgette": 5608,
      "soup_mix": 5609,
      "kumquats": 5610,
      "lemon_twi": 5611,
      "marzipan": 5612,
      "bor": 5613,
      "fig": 5614,
      "hick": 5615,
      "mort": 5616,
      "##tini": 5617,
      "##y_chips": 5618,
      "##ed_horseradish": 5619,
      "##_peanuts": 5620,
      "##ory_chips": 5621,
      "##_bun": 5622,
      "##_whis": 5623,
      "creamed_horseradish": 5624,
      "##ed_sesame_seeds": 5625,
      "##adella": 5626,
      "hot_mustard": 5627,
      "spaghet": 5628,
      "ravi": 5629,
      "##anane": 5630,
      "itali": 5631,
      "anise": 5632,
      "roasted_sesame_seeds": 5633,
      "peach_juice": 5634,
      "prosciutto_ham": 5635,
      "strawberry_jelly": 5636,
      "##e_banane": 5637,
      "white_cheese": 5638,
      "##erbet": 5639,
      "chocolate_liqueur": 5640,
      "spanish_peanuts": 5641,
      "pomegranate": 5642,
      "creme_de_banane": 5643,
      "##_limes": 5644,
      "key_limes": 5645,
      "chipotle_chile": 5646,
      "country_ham": 5647,
      "scotch_whis": 5648,
      "hot_chili_paste": 5649,
      "hickory_chips": 5650,
      "mortadella": 5651,
      "spaghettini": 5652,
      "ravioli": 5653,
      "italian_cheese": 5654,
      "scotch_whisky": 5655,
      "broc": 5656,
      "fudg": 5657,
      "##ugh": 5658,
      "##colini": 5659,
      "##weed": 5660,
      "##y_fillets": 5661,
      "##_squares": 5662,
      "##rough": 5663,
      "##eaweed": 5664,
      "garlic_oil": 5665,
      "lemon_flavoring": 5666,
      "corn_h": 5667,
      "##_gla": 5668,
      "orange_rough": 5669,
      "cherry_peppers": 5670,
      "spaghetti_sa": 5671,
      "##emite": 5672,
      "fennel_leaves": 5673,
      "turkey_carcass": 5674,
      "##andel": 5675,
      "cashew_pieces": 5676,
      "table_cream": 5677,
      "wheat_gluten": 5678,
      "paper": 5679,
      "graham_cracker_squares": 5680,
      "vegemite": 5681,
      "tangerine_juice": 5682,
      "##_salad": 5683,
      "grouper": 5684,
      "broccolini": 5685,
      "fudge_sauce": 5686,
      "corn_husks": 5687,
      "orange_roughy_fillets": 5688,
      "spaghetti_sauce_mix": 5689,
      "masala": 5690,
      "ribs": 5691,
      "##ad_": 5692,
      "##e_mushrooms": 5693,
      "##_crumbles": 5694,
      "##_pock": 5695,
      "##terell": 5696,
      "garlic_butter": 5697,
      "##peppers": 5698,
      "##e_sel": 5699,
      "coconut_flavoring": 5700,
      "##_de_sel": 5701,
      "fleur": 5702,
      "mango_puree": 5703,
      "brown_bread": 5704,
      "bread_dough": 5705,
      "soy_crumbles": 5706,
      "roasted_peppers": 5707,
      "greek_oregano": 5708,
      "pita_pock": 5709,
      "habaneros": 5710,
      "biscuit_dough": 5711,
      "chanterell": 5712,
      "veggie_": 5713,
      "broad_": 5714,
      "##_glaze": 5715,
      "fleur_de_sel": 5716,
      "pita_pockets": 5717,
      "chanterelle_mushrooms": 5718,
      "broad_beans": 5719,
      "fines": 5720,
      "##truffle_oil": 5721,
      "##iar": 5722,
      "##esli": 5723,
      "##_cups": 5724,
      "white_truffle_oil": 5725,
      "red_beets": 5726,
      "black_vinegar": 5727,
      "curds": 5728,
      "##ki_beans": 5729,
      "pork_fat": 5730,
      "##_herbes": 5731,
      "peanut_butter_cups": 5732,
      "##aviar": 5733,
      "liquor": 5734,
      "fruit_p": 5735,
      "muesli": 5736,
      "gluten_flour": 5737,
      "##_bones": 5738,
      "##zuki_beans": 5739,
      "clementines": 5740,
      "orange_wedges": 5741,
      "fines_herbes": 5742,
      "cup": 5743,
      "sag": 5744,
      "##ee_cream": 5745,
      "##ma": 5746,
      "##d_shortening": 5747,
      "##an_bread": 5748,
      "##_chives": 5749,
      "##orels": 5750,
      "garlic_chives": 5751,
      "##el_sauce": 5752,
      "##lid_shortening": 5753,
      "##cham": 5754,
      "chicken_fat": 5755,
      "solid_shortening": 5756,
      "##anth": 5757,
      "hot_chocolat": 5758,
      "pork_steaks": 5759,
      "##e_pudding": 5760,
      "white_pepper_powder": 5761,
      "dried_coconut": 5762,
      "mango_juice": 5763,
      "banana_pepper": 5764,
      "chocolate_pudding": 5765,
      "quark": 5766,
      "pizza_cheese": 5767,
      "coffee_cream": 5768,
      "amaranth": 5769,
      "tea_leaves": 5770,
      "naan_bread": 5771,
      "veal_shanks": 5772,
      "becham": 5773,
      "hot_chocolate_powder": 5774,
      "coffee_creamer": 5775,
      "bechamel_sauce": 5776,
      "tia": 5777,
      "##ed": 5778,
      "##hl": 5779,
      "##blueberries": 5780,
      "##atter": 5781,
      "##etals": 5782,
      "fresh_ric": 5783,
      "carrot_juice": 5784,
      "sesame": 5785,
      "pork_mince": 5786,
      "##e_petals": 5787,
      "almond_oil": 5788,
      "cane_syrup": 5789,
      "##otta": 5790,
      "rose_petals": 5791,
      "peach_jam": 5792,
      "turkey_stock": 5793,
      "horseradish_cream": 5794,
      "bourbon_whiskey": 5795,
      "caramel_syrup": 5796,
      "##_maria": 5797,
      "wild_blueberries": 5798,
      "tia_maria": 5799,
      "fresh_ricotta": 5800,
      "gr": 5801,
      "tortilla": 5802,
      "wak": 5803,
      "##_lentils": 5804,
      "garlic_h": 5805,
      "##ame_s": 5806,
      "##illed_chicken": 5807,
      "ginger_sna": 5808,
      "kohl": 5809,
      "##mp_seeds": 5810,
      "grain": 5811,
      "##rabi": 5812,
      "green_chili_sauce": 5813,
      "hemp_seeds": 5814,
      "passion_fruit_juice": 5815,
      "blood_orange_juice": 5816,
      "cracked_ice": 5817,
      "fryer": 5818,
      "leaf_lettuce": 5819,
      "grilled_chicken": 5820,
      "wakame_s": 5821,
      "garlic_heads": 5822,
      "ginger_snaps": 5823,
      "kohlrabi": 5824,
      "wakame_seaweed": 5825,
      "mic": 5826,
      "nam": 5827,
      "wa": 5828,
      "##_pla": 5829,
      "##_peppercorns": 5830,
      "yellow_rice": 5831,
      "##ake_syrup": 5832,
      "##e_popcorn": 5833,
      "cherry_jam": 5834,
      "baby_onions": 5835,
      "##ave_popcorn": 5836,
      "tuna_fish": 5837,
      "lamb_stock": 5838,
      "pancake_syrup": 5839,
      "habanero_sauce": 5840,
      "##rowave_popcorn": 5841,
      "melon_liqueur": 5842,
      "pink_peppercorns": 5843,
      "cupc": 5844,
      "microwave_popcorn": 5845,
      "nam_pla": 5846,
      "waff": 5847,
      "ferm": 5848,
      "lettuc": 5849,
      "##oki": 5850,
      "##_quar": 5851,
      "##ms": 5852,
      "##ya_sauce": 5853,
      "##orice": 5854,
      "##ranks": 5855,
      "##_franks": 5856,
      "creamed_coconut": 5857,
      "##ed_beets": 5858,
      "##ed_black_beans": 5859,
      "##ented_black_beans": 5860,
      "shrimp_stock": 5861,
      "##read_noodles": 5862,
      "banana_leaves": 5863,
      "asparagus_tips": 5864,
      "enoki": 5865,
      "##_toast": 5866,
      "bean_th": 5867,
      "pickled_beets": 5868,
      "horseradish_mustard": 5869,
      "light_soya_sauce": 5870,
      "fruit_preserves": 5871,
      "chicken_leg": 5872,
      "tomatillo_salsa": 5873,
      "cocktail_franks": 5874,
      "fermented_black_beans": 5875,
      "##_quarters": 5876,
      "enoki_mushrooms": 5877,
      "bean_thread_noodles": 5878,
      "chicken_leg_quarters": 5879,
      "lic": 5880,
      "sard": 5881,
      "##amin": 5882,
      "beet_juice": 5883,
      "mexican_cre": 5884,
      "pita_chips": 5885,
      "puff_pastry_sheet": 5886,
      "apple_brandy": 5887,
      "carob_chips": 5888,
      "black_caviar": 5889,
      "sardines": 5890,
      "mexican_crema": 5891,
      "ced": 5892,
      "gumbo": 5893,
      "jars": 5894,
      "mutton": 5895,
      "pon": 5896,
      "rou": 5897,
      "##er's": 5898,
      "##ar_pl": 5899,
      "##lav": 5900,
      "garlic_flakes": 5901,
      "chard_": 5902,
      "##_file": 5903,
      "cookie_crumbs": 5904,
      "potato_water": 5905,
      "barbecue_seasoning": 5906,
      "turkey_ham": 5907,
      "mexican_seasoning": 5908,
      "marjoram_leaves": 5909,
      "pomegranates": 5910,
      "brewer's": 5911,
      "cantaloupes": 5912,
      "##_garlic_sauce": 5913,
      "black_bean_garlic_sauce": 5914,
      "hazelnut_oil": 5915,
      "##zu_sauce": 5916,
      "rice_bran": 5917,
      "adzuki_beans": 5918,
      "cedar_pl": 5919,
      "gumbo_file": 5920,
      "ponzu_sauce": 5921,
      "roux": 5922,
      "chard_leaves": 5923,
      "brewer's_yeast": 5924,
      "hers": 5925,
      "holl": 5926,
      "ling": 5927,
      "pas": 5928,
      "##nat": 5929,
      "##fill": 5930,
      "##anda": 5931,
      "##_polenta": 5932,
      "##jus": 5933,
      "##illa_chiles": 5934,
      "##otes": 5935,
      "##e_squares": 5936,
      "##apes": 5937,
      "dried_lav": 5938,
      "##ise_sauce": 5939,
      "red_pepper_powder": 5940,
      "##ed_milk_balls": 5941,
      "instant_polenta": 5942,
      "annat": 5943,
      "chocolate_squares": 5944,
      "romaine_leaves": 5945,
      "lemon_wedge": 5946,
      "spanish_rice": 5947,
      "malted_milk_balls": 5948,
      "##'s_syrup": 5949,
      "rice_paper_sheets": 5950,
      "##hey's_syrup": 5951,
      "chayotes": 5952,
      "hershey's_syrup": 5953,
      "hollanda": 5954,
      "lingon": 5955,
      "pasilla_chiles": 5956,
      "##filling": 5957,
      "dried_lavender": 5958,
      "annatto": 5959,
      "hollandaise_sauce": 5960,
      "lyc": 5961,
      "ton": 5962,
      "treacle": 5963,
      "##_legs": 5964,
      "##uds": 5965,
      "##ic_water": 5966,
      "garlic_sauce": 5967,
      "##ato_juice": 5968,
      "lemon_pie_filling": 5969,
      "##meats": 5970,
      "##lemon_peel": 5971,
      "breadsticks": 5972,
      "dried_peaches": 5973,
      "pear_juice": 5974,
      "clam_broth": 5975,
      "clamato_juice": 5976,
      "quinoa_flour": 5977,
      "nutmeats": 5978,
      "candied_lemon_peel": 5979,
      "lemon_twists": 5980,
      "tonic_water": 5981,
      "ep": 5982,
      "nectar": 5983,
      "yuc": 5984,
      "##az": 5985,
      "##a_ham": 5986,
      "##a_root": 5987,
      "##ca_root": 5988,
      "##bark": 5989,
      "##d_bark": 5990,
      "##icola": 5991,
      "##ales": 5992,
      "##_buds": 5993,
      "vanilla_b": 5994,
      "##almond_bark": 5995,
      "graham_flour": 5996,
      "capicola": 5997,
      "mango_pulp": 5998,
      "strawberry_syrup": 5999,
      "fruit_chutney": 6000,
      "fenugreek_leaves": 6001,
      "##wurst": 6002,
      "parma_ham": 6003,
      "nacho_chips": 6004,
      "olive_juice": 6005,
      "epaz": 6006,
      "nectarine": 6007,
      "yucca_root": 6008,
      "epazote": 6009,
      "##o_root": 6010,
      "##zos": 6011,
      "##_con": 6012,
      "##ena": 6013,
      "lemon_v": 6014,
      "ginger_beer": 6015,
      "pie_dough": 6016,
      "##_sherbet": 6017,
      "cass": 6018,
      "##rinds": 6019,
      "mint_chocolate_chips": 6020,
      "cracker": 6021,
      "quinc": 6022,
      "goat's": 6023,
      "raspberry_sherbet": 6024,
      "taro_root": 6025,
      "pear_halves": 6026,
      "##erbena": 6027,
      "crabs": 6028,
      "pork_rinds": 6029,
      "matzos": 6030,
      "farina": 6031,
      "##aking_chips": 6032,
      "tangerine_": 6033,
      "poppy_seed_dressing": 6034,
      "vanilla_baking_chips": 6035,
      "lemon_verbena": 6036,
      "goat's_cheese": 6037,
      "gumm": 6038,
      "hard_": 6039,
      "tand": 6040,
      "##oori": 6041,
      "##_jus": 6042,
      "##black_beans": 6043,
      "##mag": 6044,
      "##ji": 6045,
      "##d_steak": 6046,
      "##ed_meat": 6047,
      "##orms": 6048,
      "##und_steak": 6049,
      "fromag": 6050,
      "beef_ribs": 6051,
      "stick": 6052,
      "pumpkin_spice": 6053,
      "##hip_cookies": 6054,
      "minced_meat": 6055,
      "##burgers": 6056,
      "serrano_ham": 6057,
      "beet_leaves": 6058,
      "prun": 6059,
      "refried_black_beans": 6060,
      "chocolate_chip_cookies": 6061,
      "round_steak": 6062,
      "au_jus": 6063,
      "chocolate_cookies": 6064,
      "##y_worms": 6065,
      "sponge_cakes": 6066,
      "cookie_dough": 6067,
      "glycerin": 6068,
      "veggie_burgers": 6069,
      "gummy_worms": 6070,
      "hard_rolls": 6071,
      "tandoori": 6072,
      "au_jus_mix": 6073,
      "dev": 6074,
      "##wain": 6075,
      "##iled_": 6076,
      "##_pumpkin": 6077,
      "onion_soup": 6078,
      "sugar_pumpkin": 6079,
      "##e_sausage": 6080,
      "dried_mango": 6081,
      "carbon": 6082,
      "##ubbles": 6083,
      "curacao": 6084,
      "avocado_oil": 6085,
      "chinese_sausage": 6086,
      "##ated_water": 6087,
      "turnip_greens": 6088,
      "rice_bubbles": 6089,
      "blackberry_jam": 6090,
      "meringue_powder": 6091,
      "ajwain": 6092,
      "fruit_pectin": 6093,
      "deviled_": 6094,
      "carbonated_water": 6095,
      "deviled_ham": 6096,
      "melb": 6097,
      "##a_milk": 6098,
      "##a_sal": 6099,
      "##a_toast": 6100,
      "##bott": 6101,
      "##oms": 6102,
      "##ums": 6103,
      "red_miso": 6104,
      "##_fries": 6105,
      "dried_pl": 6106,
      "##ds_of_garlic": 6107,
      "vegetable_soup": 6108,
      "heads_of_garlic": 6109,
      "hot_roll": 6110,
      "artichoke_": 6111,
      "peach_brandy": 6112,
      "ricotta_sal": 6113,
      "french_fries": 6114,
      "hamburger_bun": 6115,
      "soya_milk": 6116,
      "lamb_cutlets": 6117,
      "jelly_beans": 6118,
      "graham_wafers": 6119,
      "green_tea_powder": 6120,
      "dumplings": 6121,
      "waffles": 6122,
      "melba_toast": 6123,
      "##bottoms": 6124,
      "dried_plums": 6125,
      "hot_roll_mix": 6126,
      "artichoke_bottoms": 6127,
      "ricotta_salata": 6128,
      "chipp": 6129,
      "tass": 6130,
      "vit": 6131,
      "##leh": 6132,
      "##y_mix": 6133,
      "##_crystals": 6134,
      "onion_rolls": 6135,
      "sugar_crystals": 6136,
      "##ddleh": 6137,
      "frozen_pie_crust": 6138,
      "##_twine": 6139,
      "boni": 6140,
      "pork_steak": 6141,
      "ham_steak": 6142,
      "##dy_mar": 6143,
      "turkey_wings": 6144,
      "pie_crust_mix": 6145,
      "strawberry_glaze": 6146,
      "meat_stock": 6147,
      "pastry_crust": 6148,
      "pheas": 6149,
      "fiddleh": 6150,
      "bloody_mar": 6151,
      "kitchen_twine": 6152,
      "candied_peel": 6153,
      "hot_cocoa_mix": 6154,
      "chipped_beef": 6155,
      "tasso": 6156,
      "vitamin": 6157,
      "bloody_mary_mix": 6158,
      "glut": 6159,
      "marm": 6160,
      "##le": 6161,
      "##kon": 6162,
      "##anell": 6163,
      "garlic_bread": 6164,
      "##rigs": 6165,
      "cream_soup": 6166,
      "##to_flakes": 6167,
      "sweet_cream": 6168,
      "##us_rice": 6169,
      "yellow_beans": 6170,
      "##e_peppers": 6171,
      "banana_chips": 6172,
      "##e_sprigs": 6173,
      "##inous_rice": 6174,
      "peppermint_schnapps": 6175,
      "anise_seeds": 6176,
      "vegan_cream_cheese": 6177,
      "##_mozzarella": 6178,
      "cubanell": 6179,
      "buffalo_mozzarella": 6180,
      "millet_flour": 6181,
      "sage_sprigs": 6182,
      "bonito_flakes": 6183,
      "glutinous_rice": 6184,
      "marmite": 6185,
      "cubanelle_peppers": 6186,
      "lol": 6187,
      "##och": 6188,
      "##_qu": 6189,
      "##_rind": 6190,
      "##ined_flour": 6191,
      "##e_lea": 6192,
      "##lip": 6193,
      "onion_seeds": 6194,
      "onion_rings": 6195,
      "lemonad": 6196,
      "green_pl": 6197,
      "##_sour_cream": 6198,
      "pepper_rings": 6199,
      "chicken_seasoning": 6200,
      "##ise_p": 6201,
      "celery_tops": 6202,
      "##_treacle": 6203,
      "black_treacle": 6204,
      "coconut_butter": 6205,
      "vegetable_juice_cocktail": 6206,
      "salsa_con": 6207,
      "pasta_noodles": 6208,
      "refined_flour": 6209,
      "thai_chile": 6210,
      "starch": 6211,
      "star_anise_p": 6212,
      "vegan_sour_cream": 6213,
      "tangerine": 6214,
      "##antains": 6215,
      "orange_slice": 6216,
      "blood_orange": 6217,
      "persimmon_pulp": 6218,
      "grouper_fillets": 6219,
      "lettuce_lea": 6220,
      "fiddleheads": 6221,
      "lollip": 6222,
      "##_queso": 6223,
      "lemonade_mix": 6224,
      "green_plantains": 6225,
      "salsa_con_queso": 6226,
      "star_anise_pods": 6227,
      "lettuce_leaf": 6228,
      "coc": 6229,
      "cak": 6230,
      "dai": 6231,
      "kab": 6232,
      "puff": 6233,
      "##o_": 6234,
      "##a_squash": 6235,
      "##icing": 6236,
      "##_cones": 6237,
      "##ed_wheat": 6238,
      "##ed_water": 6239,
      "##ator": 6240,
      "##ut_oil": 6241,
      "##lope": 6242,
      "butter_substitute": 6243,
      "sugar_cubes": 6244,
      "##chocolat": 6245,
      "milk_chocolate_pieces": 6246,
      "white_chocolat": 6247,
      "##sherbet": 6248,
      "##_nut_oil": 6249,
      "taco_chips": 6250,
      "smoked_almonds": 6251,
      "lime_sherbet": 6252,
      "raspberry_jelly": 6253,
      "raspberry_vodka": 6254,
      "strawberry_puree": 6255,
      "yogurt_cheese": 6256,
      "macadamia_nut_oil": 6257,
      "beef_bones": 6258,
      "green_asparagus": 6259,
      "mushroom_gravy": 6260,
      "distilled_water": 6261,
      "ice_cream_cones": 6262,
      "gravy_mix": 6263,
      "fig_preserves": 6264,
      "##ocha_squash": 6265,
      "coco_": 6266,
      "cake_crumbs": 6267,
      "daikon": 6268,
      "kabocha_squash": 6269,
      "puffed_wheat": 6270,
      "##lopez": 6271,
      "white_chocolate_": 6272,
      "coco_lopez": 6273,
      "puffed_wheat_cereal": 6274,
      "##bean": 6275,
      "##erog": 6276,
      "##cohol": 6277,
      "##quillo": 6278,
      "##ash_bread": 6279,
      "rice_sticks": 6280,
      "pierog": 6281,
      "piquillo": 6282,
      "cocoa_butter": 6283,
      "hamburger_patties": 6284,
      "soybean": 6285,
      "bean_dip": 6286,
      "strawberry_liqueur": 6287,
      "puff_pastry_shells": 6288,
      "nut_butter": 6289,
      "peppermint_oil": 6290,
      "coffee_extract": 6291,
      "almond_bark": 6292,
      "lavash_bread": 6293,
      "dipping_chocolate": 6294,
      "lychees": 6295,
      "cassava": 6296,
      "quinces": 6297,
      "piquillo_peppers": 6298,
      "ery": 6299,
      "her": 6300,
      "methi": 6301,
      "##th": 6302,
      "fresh_pasta": 6303,
      "chile": 6304,
      "parsley_stems": 6305,
      "yellow_lentils": 6306,
      "red_pepper_paste": 6307,
      "oregano_sprigs": 6308,
      "coconut_syrup": 6309,
      "##ring_fillets": 6310,
      "pumpkin_pie_mix": 6311,
      "tamales": 6312,
      "butterscotch_pudding": 6313,
      "##ritol": 6314,
      "espresso_beans": 6315,
      "salad_dressing_mix": 6316,
      "beef_shank": 6317,
      "dashi_stock": 6318,
      "franks": 6319,
      "guava_juice": 6320,
      "guava_nectar": 6321,
      "dipping_sauce": 6322,
      "goos": 6323,
      "eryth": 6324,
      "herring_fillets": 6325,
      "erythritol": 6326,
      "ai": 6327,
      "morels": 6328,
      "whe": 6329,
      "##flak": 6330,
      "##y_rice": 6331,
      "##_coat": 6332,
      "##_suet": 6333,
      "##ed_flak": 6334,
      "##sted_flak": 6335,
      "orange_so": 6336,
      "frosted_flak": 6337,
      "frozen_fruit": 6338,
      "lime_c": 6339,
      "beef_suet": 6340,
      "gingerb": 6341,
      "black_soy_sauce": 6342,
      "sesame_paste": 6343,
      "ham_stock": 6344,
      "##y_protein": 6345,
      "ice_cube": 6346,
      "smoked_chicken": 6347,
      "mashed_banana": 6348,
      "mushroom_stems": 6349,
      "dried_fruits": 6350,
      "crab_boil_seasoning": 6351,
      "cocktail_onions": 6352,
      "cracker_meal": 6353,
      "sticky_rice": 6354,
      "gooseberries": 6355,
      "aioli": 6356,
      "whey_protein": 6357,
      "##_coating": 6358,
      "orange_soda": 6359,
      "frosted_flakes": 6360,
      "bes": 6361,
      "batter": 6362,
      "pak": 6363,
      "##dish": 6364,
      "##_e": 6365,
      "##haddock": 6366,
      "##izzar": 6367,
      "##_cake_": 6368,
      "##loaf": 6369,
      "garlic_seasoning": 6370,
      "butter_buds": 6371,
      "##chac": 6372,
      "chicken_g": 6373,
      "black_salt": 6374,
      "##ose": 6375,
      "cachac": 6376,
      "##_radish": 6377,
      "roast_pork": 6378,
      "##e_whiskey": 6379,
      "##_choi": 6380,
      "soy_cheese": 6381,
      "brandy_extract": 6382,
      "smoked_haddock": 6383,
      "##_toppings": 6384,
      "pizza_toppings": 6385,
      "meatloaf": 6386,
      "cheese_soup": 6387,
      "rye_whiskey": 6388,
      "matzo_cake_": 6389,
      "baby_artichokes": 6390,
      "blueberry_jam": 6391,
      "candied_pecans": 6392,
      "##lossoms": 6393,
      "turkey_legs": 6394,
      "pink_food_coloring": 6395,
      "black_currants": 6396,
      "##op_sticks": 6397,
      "licorice": 6398,
      "vitamin_e": 6399,
      "lollipop_sticks": 6400,
      "daikon_radish": 6401,
      "besan": 6402,
      "pak_choi": 6403,
      "##izzards": 6404,
      "chicken_gizzards": 6405,
      "cachaca": 6406,
      "matzo_cake_meal": 6407,
      "dandel": 6408,
      "macar": 6409,
      "sole": 6410,
      "##oons": 6411,
      "##_ir": 6412,
      "##rel": 6413,
      "##cream": 6414,
      "##fel": 6415,
      "##on_steaks": 6416,
      "##atmeal": 6417,
      "##atelli": 6418,
      "##ea_sprouts": 6419,
      "##ion_greens": 6420,
      "##_balm": 6421,
      "##_blan": 6422,
      "buttercream": 6423,
      "chest": 6424,
      "lemon_sorbet": 6425,
      "lemon_balm": 6426,
      "##_frosting": 6427,
      "##_oatmeal": 6428,
      "frozen_yogurt": 6429,
      "instant_oatmeal": 6430,
      "##_roe": 6431,
      "mint_sauce": 6432,
      "flat_ir": 6433,
      "vegetable_bouillon": 6434,
      "turkey_thighs": 6435,
      "##ranberry_juice": 6436,
      "raspberry_juice": 6437,
      "bean_curd": 6438,
      "strawberry_extract": 6439,
      "pickle": 6440,
      "lamb_steaks": 6441,
      "white_cranberry_juice": 6442,
      "chocolate_cake": 6443,
      "palm_oil": 6444,
      "duck_fat": 6445,
      "wooden_sticks": 6446,
      "queso_blan": 6447,
      "seafood_stock": 6448,
      "black_bean_paste": 6449,
      "snow_pea_sprouts": 6450,
      "capsicums": 6451,
      "banana_pepper_rings": 6452,
      "amaranth_flour": 6453,
      "annatto_seeds": 6454,
      "tandoori_paste": 6455,
      "dandelion_greens": 6456,
      "macaroons": 6457,
      "buttercream_frosting": 6458,
      "chestnut": 6459,
      "flat_iron_steaks": 6460,
      "queso_blanco": 6461,
      "##luc": 6462,
      "##_appl": 6463,
      "##ias": 6464,
      "##gluc": 6465,
      "##andy": 6466,
      "##_sandwich": 6467,
      "##eade": 6468,
      "##ing_appl": 6469,
      "##or_dal": 6470,
      "##_bark": 6471,
      "##_malt": 6472,
      "green_salad": 6473,
      "##e_cider": 6474,
      "cream_soda": 6475,
      "cinnamon_bark": 6476,
      "limeade": 6477,
      "cavi": 6478,
      "liquid_gluc": 6479,
      "tart": 6480,
      "toor_dal": 6481,
      "macadamias": 6482,
      "##e_frais": 6483,
      "lardons": 6484,
      "orange_bitters": 6485,
      "barley_malt": 6486,
      "ice_cream_sandwich": 6487,
      "sparkling_appl": 6488,
      "blueberry_preserves": 6489,
      "liverwurst": 6490,
      "goose": 6491,
      "cupcakes": 6492,
      "fromage_frais": 6493,
      "caviar": 6494,
      "liquid_glucose": 6495,
      "ice_cream_sandwiches": 6496,
      "sparkling_apple_cider": 6497,
      "ber": 6498,
      "bun": 6499,
      "crum": 6500,
      "cip": 6501,
      "go": 6502,
      "kef": 6503,
      "whey": 6504,
      "zin": 6505,
      "##earm": 6506,
      "##bu": 6507,
      "##fandel": 6508,
      "##_pecan": 6509,
      "butter_pecan": 6510,
      "##bere": 6511,
      "cinnamon_rolls": 6512,
      "##tofu": 6513,
      "##psi": 6514,
      "##ini_onions": 6515,
      "spearm": 6516,
      "beef_tips": 6517,
      "pork_stock": 6518,
      "##ollini_onions": 6519,
      "plum_preserves": 6520,
      "pepsi": 6521,
      "strawberry_slices": 6522,
      "sweetened_lime_juice": 6523,
      "##_bean_paste": 6524,
      "##litter": 6525,
      "beef_stew_seasoning": 6526,
      "vegan_cheese": 6527,
      "veal_scallops": 6528,
      "soft_cheese": 6529,
      "seafood_sauce": 6530,
      "corn_tortilla": 6531,
      "fried_tofu": 6532,
      "hazelnut_meal": 6533,
      "meringues": 6534,
      "persimmons": 6535,
      "achiote_paste": 6536,
      "cedar_plank": 6537,
      "##ji_berries": 6538,
      "tart_shells": 6539,
      "berbere": 6540,
      "cipollini_onions": 6541,
      "goji_berries": 6542,
      "kefir": 6543,
      "zinfandel": 6544,
      "butter_pecan_ice_cream": 6545,
      "spearmint": 6546,
      "burd": 6547,
      "dat": 6548,
      "kom": 6549,
      "kas": 6550,
      "ps": 6551,
      "suri": 6552,
      "truff": 6553,
      "##trout": 6554,
      "##lli": 6555,
      "##fy_greens": 6556,
      "##ylli": 6557,
      "##e_vegetables": 6558,
      "garlic_juice": 6559,
      "##_methi": 6560,
      "##e_salsa": 6561,
      "cinnamon_schnapps": 6562,
      "##_neck": 6563,
      "##ti_beans": 6564,
      "green_pepper_rings": 6565,
      "fish_steaks": 6566,
      "##ock_root": 6567,
      "##er_cups": 6568,
      "hot_pepper_jelly": 6569,
      "turkey_neck": 6570,
      "smoked_trout": 6571,
      "bean_flour": 6572,
      "teff": 6573,
      "pear_nectar": 6574,
      "white_candy": 6575,
      "asian": 6576,
      "steak_spice": 6577,
      "chinese_vegetables": 6578,
      "paper_cups": 6579,
      "chipotle_salsa": 6580,
      "candy_bars": 6581,
      "mushroom_broth": 6582,
      "anisette": 6583,
      "##lotti_beans": 6584,
      "##'s_f": 6585,
      "sorrel": 6586,
      "venison_roast": 6587,
      "pig's_f": 6588,
      "leafy_greens": 6589,
      "##uri_methi": 6590,
      "borlotti_beans": 6591,
      "rice_bran_oil": 6592,
      "lemon_verbena_leaves": 6593,
      "pheasants": 6594,
      "burdock_root": 6595,
      "kasuri_methi": 6596,
      "psylli": 6597,
      "surimi": 6598,
      "truffles": 6599,
      "white_candy_coating": 6600,
      "psyllium": 6601,
      "pea": 6602,
      "rib": 6603,
      "wra": 6604,
      "##hs": 6605,
      "##noli": 6606,
      "garlic_sc": 6607,
      "lemon_oil": 6608,
      "milky_w": 6609,
      "##ay_bars": 6610,
      "white_asparagus": 6611,
      "##ecco": 6612,
      "bacon_pieces": 6613,
      "condi": 6614,
      "pork_cho": 6615,
      "##_shank": 6616,
      "mint_jelly": 6617,
      "mango_sorbet": 6618,
      "red_currants": 6619,
      "prosecco": 6620,
      "serranos": 6621,
      "pancakes": 6622,
      "green_coriander": 6623,
      "matzohs": 6624,
      "pignoli": 6625,
      "rack_of_lamb": 6626,
      "borax": 6627,
      "lingonberry": 6628,
      "garlic_scapes": 6629,
      "milky_way_bars": 6630,
      "condiments": 6631,
      "pork_chop": 6632,
      "pat": 6633,
      "##obs": 6634,
      "##leat": 6635,
      "##_leat": 6636,
      "##iator": 6637,
      "##magna": 6638,
      "##wax": 6639,
      "##vage": 6640,
      "##eswax": 6641,
      "##ordi": 6642,
      "##_bar": 6643,
      "##_mein_noodles": 6644,
      "green_tomato": 6645,
      "##_food": 6646,
      "red_pepper_jelly": 6647,
      "pim": 6648,
      "stuffing": 6649,
      "cocoa_n": 6650,
      "##e_patties": 6651,
      "cav": 6652,
      "armagna": 6653,
      "coconut_milk_powder": 6654,
      "chocolate_pieces": 6655,
      "fruit_leat": 6656,
      "chocolate_almond_bark": 6657,
      "pomegranate_syrup": 6658,
      "lovage": 6659,
      "lo_mein_noodles": 6660,
      "mars_bars": 6661,
      "duck_legs": 6662,
      "radiator": 6663,
      "cornish_hen": 6664,
      "sausage_patties": 6665,
      "corn_cobs": 6666,
      "beeswax": 6667,
      "lime_cordi": 6668,
      "stuffing_cubes": 6669,
      "cocoa_nibs": 6670,
      "armagnac": 6671,
      "fruit_leather": 6672,
      "radiatore": 6673,
      "lime_cordial": 6674,
      "bur": 6675,
      "cocon": 6676,
      "pate": 6677,
      "paw": 6678,
      "##eed_butter": 6679,
      "##paw": 6680,
      "##_seed_butter": 6681,
      "butter_cookies": 6682,
      "dried_lim": 6683,
      "##elloni": 6684,
      "carrot_sticks": 6685,
      "orange_oil": 6686,
      "##_tubes": 6687,
      "broccoli_spears": 6688,
      "cannelloni": 6689,
      "mint_sprig": 6690,
      "peach_liqueur": 6691,
      "minced_chicken": 6692,
      "sunflower_seed_butter": 6693,
      "crema": 6694,
      "tuna_fillets": 6695,
      "liquid_sweetener": 6696,
      "chocolate_icing": 6697,
      "peppermint_patties": 6698,
      "veal_chops": 6699,
      "##ling_wrappers": 6700,
      "rabbits": 6701,
      "blackberry_preserves": 6702,
      "chayote": 6703,
      "sponge_cake": 6704,
      "dumpling_wrappers": 6705,
      "tangerine_zest": 6706,
      "soybean_oil": 6707,
      "coconuts": 6708,
      "pawpaw": 6709,
      "dried_limes": 6710,
      "cannelloni_tubes": 6711,
      "fill": 6712,
      "kam": 6713,
      "sil": 6714,
      "shir": 6715,
      "##cotti": 6716,
      "##morels": 6717,
      "##arfel": 6718,
      "##andies": 6719,
      "##ataki": 6720,
      "##ing_g": 6721,
      "##_beet": 6722,
      "##_blossoms": 6723,
      "##_farfel": 6724,
      "dried_morels": 6725,
      "beef_drippings": 6726,
      "beef_shanks": 6727,
      "cilantro_stems": 6728,
      "coconut_meat": 6729,
      "curry_sauce": 6730,
      "##ake_lin": 6731,
      "##e_puree": 6732,
      "chocolate_b": 6733,
      "turkey_drumsticks": 6734,
      "turkey_drippings": 6735,
      "cardamom_pod": 6736,
      "biscotti": 6737,
      "long_beans": 6738,
      "##d_candies": 6739,
      "sweet_potato_puree": 6740,
      "##_alcohol": 6741,
      "mushroom_soy_sauce": 6742,
      "lox": 6743,
      "candied_walnuts": 6744,
      "ramps": 6745,
      "matzo_farfel": 6746,
      "squash_blossoms": 6747,
      "hard_candies": 6748,
      "soup_stock": 6749,
      "hash_brown_patties": 6750,
      "##ver_beet": 6751,
      "bagel_chips": 6752,
      "grain_alcohol": 6753,
      "cupcake_lin": 6754,
      "prune_puree": 6755,
      "methi_seeds": 6756,
      "kombu": 6757,
      "pig's_feet": 6758,
      "wraps": 6759,
      "fillets": 6760,
      "silver_beet": 6761,
      "shirataki": 6762,
      "##ing_gel": 6763,
      "chocolate_bar": 6764,
      "cupcake_liners": 6765,
      "shirataki_noodles": 6766,
      "edi": 6767,
      "gi": 6768,
      "kelp": 6769,
      "mole": 6770,
      "oct": 6771,
      "rapes": 6772,
      "sat": 6773,
      "##eils": 6774,
      "##ve_": 6775,
      "##via": 6776,
      "##era": 6777,
      "##lobs": 6778,
      "##_mors": 6779,
      "chicken_bones": 6780,
      "##ean_paste": 6781,
      "##ay_sauce": 6782,
      "live_": 6783,
      "vegetable_seasoning": 6784,
      "##berts": 6785,
      "cinnamon_oil": 6786,
      "tomato_chutney": 6787,
      "chili_bean_paste": 6788,
      "##ulina": 6789,
      "##irulina": 6790,
      "##iniera": 6791,
      "parsley_root": 6792,
      "spirulina": 6793,
      "ginger_syrup": 6794,
      "cooked_oat": 6795,
      "red_bean_paste": 6796,
      "##oula": 6797,
      "rice_powder": 6798,
      "ham_shank": 6799,
      "cand": 6800,
      "peanut_butter_mors": 6801,
      "casings": 6802,
      "##pareils": 6803,
      "nonpareils": 6804,
      "raspberry_puree": 6805,
      "horseradish_root": 6806,
      "##ardiniera": 6807,
      "##ble_g": 6808,
      "cheese_s": 6809,
      "tripe": 6810,
      "watermelon_balls": 6811,
      "filberts": 6812,
      "melon_balls": 6813,
      "pudding_mix": 6814,
      "##opus": 6815,
      "nacho_cheese": 6816,
      "poppy_seed_filling": 6817,
      "lingonberries": 6818,
      "cavatelli": 6819,
      "edible_g": 6820,
      "giardiniera": 6821,
      "octopus": 6822,
      "rapeseed_oil": 6823,
      "satay_sauce": 6824,
      "##lobsters": 6825,
      "live_lobsters": 6826,
      "cooked_oatmeal": 6827,
      "peanut_butter_morsels": 6828,
      "edible_glitter": 6829,
      "dess": 6830,
      "gy": 6831,
      "hen": 6832,
      "huck": 6833,
      "meal": 6834,
      "pa": 6835,
      "sna": 6836,
      "shis": 6837,
      "waf": 6838,
      "##oz": 6839,
      "##t_topping": 6840,
      "##leberries": 6841,
      "##_li": 6842,
      "##har": 6843,
      "##rus": 6844,
      "##a_skins": 6845,
      "##ert_topping": 6846,
      "##inom": 6847,
      "##roll": 6848,
      "##ppadam": 6849,
      "##utern": 6850,
      "garlic_sausage": 6851,
      "bahar": 6852,
      "##oto": 6853,
      "white_almond_bark": 6854,
      "parsley_ro": 6855,
      "##e_potatoes": 6856,
      "sautern": 6857,
      "##dives": 6858,
      "peach_syrup": 6859,
      "brown_sauce": 6860,
      "brownies": 6861,
      "##_orange_juice": 6862,
      "endives": 6863,
      "elder": 6864,
      "raspberry_extract": 6865,
      "strawberry_juice": 6866,
      "sour_orange_juice": 6867,
      "##lenuts": 6868,
      "chocolate_extract": 6869,
      "pickling_li": 6870,
      "watermelon_rind": 6871,
      "purple_potatoes": 6872,
      "crab_legs": 6873,
      "ducklings": 6874,
      "hoagie_roll": 6875,
      "blueberry_juice": 6876,
      "jelly_powder": 6877,
      "citrus": 6878,
      "guava_paste": 6879,
      "ajinom": 6880,
      "achiote_powder": 6881,
      "cedar_planks": 6882,
      "tangerine_peel": 6883,
      "white_chocolate_liqueur": 6884,
      "candlenuts": 6885,
      "dessert_topping": 6886,
      "gyoz": 6887,
      "huckleberries": 6888,
      "pappadam": 6889,
      "snails": 6890,
      "shiso": 6891,
      "wafers": 6892,
      "baharat": 6893,
      "parsley_roots": 6894,
      "sauterne": 6895,
      "pickling_lime": 6896,
      "citrus_juice": 6897,
      "ajinomoto": 6898,
      "gyoza_skins": 6899,
      "pappadams": 6900,
      "cer": 6901,
      "gan": 6902,
      "kh": 6903,
      "nop": 6904,
      "per": 6905,
      "tender": 6906,
      "##oy_s": 6907,
      "##tle": 6908,
      "##_lic": 6909,
      "##_egg": 6910,
      "##s_fillets": 6911,
      "##wberries": 6912,
      "##enberries": 6913,
      "choy_s": 6914,
      "sugar_cookies": 6915,
      "##shallo": 6916,
      "##olets": 6917,
      "lemon_leaves": 6918,
      "dried_stra": 6919,
      "parsley_sprig": 6920,
      "beef_shoulder": 6921,
      "black_lentils": 6922,
      "black_lic": 6923,
      "rice_crackers": 6924,
      "bass_fillets": 6925,
      "##ache": 6926,
      "##ressata": 6927,
      "##oke": 6928,
      "cherry_extract": 6929,
      "mango_salsa": 6930,
      "salmon_roe": 6931,
      "white_baking": 6932,
      "potato_bread": 6933,
      "potato_sticks": 6934,
      "##ysenberries": 6935,
      "goat_meat": 6936,
      "bean_paste": 6937,
      "pickled_pepper": 6938,
      "radish_sprouts": 6939,
      "fruit_salad": 6940,
      "hot_dog_bun": 6941,
      "anise_oil": 6942,
      "wasabi_peas": 6943,
      "ice_cream_topping": 6944,
      "##oya": 6945,
      "soup_bone": 6946,
      "fried_shallo": 6947,
      "hazelnut_syrup": 6948,
      "boysenberries": 6949,
      "quail_egg": 6950,
      "glycerine": 6951,
      "prune_juice": 6952,
      "pierogi": 6953,
      "ribbon": 6954,
      "certo": 6955,
      "ganache": 6956,
      "khoya": 6957,
      "tenderloin": 6958,
      "choy_sum": 6959,
      "dried_strawberries": 6960,
      "black_licorice": 6961,
      "white_baking_bar": 6962,
      "pickled_peppers": 6963,
      "fried_shallots": 6964,
      "quail_eggs": 6965,
      "agar": 6966,
      "asc": 6967,
      "cul": 6968,
      "dal": 6969,
      "fo": 6970,
      "fr": 6971,
      "gai": 6972,
      "hog": 6973,
      "lot": 6974,
      "rec": 6975,
      "tra": 6976,
      "##_4": 6977,
      "##_lan": 6978,
      "##aat": 6979,
      "##bic": 6980,
      "##b_topping": 6981,
      "##win": 6982,
      "##ve_b": 6983,
      "##erky": 6984,
      "##iler": 6985,
      "##il_mix": 6986,
      "##ic_wrap": 6987,
      "##ane_juice": 6988,
      "##_claw": 6989,
      "##urds": 6990,
      "##or_4": 6991,
      "##orbic": 6992,
      "##_brit": 6993,
      "##stini": 6994,
      "##stic_wrap": 6995,
      "##ucto": 6996,
      "sugar_t": 6997,
      "chicken_carcass": 6998,
      "##e_curds": 6999,
      "##ed_cane_juice": 7000,
      "beef_j": 7001,
      "ginger_wine": 7002,
      "black_rice": 7003,
      "iced_t": 7004,
      "coconut_juice": 7005,
      "conch": 7006,
      "peanut_brit": 7007,
      "plastic_wrap": 7008,
      "##vocaat": 7009,
      "evaporated_cane_juice": 7010,
      "baby_food": 7011,
      "##avas": 7012,
      "raspberry_sorbet": 7013,
      "pickled_": 7014,
      "pickled_vegetables": 7015,
      "cranberry_beans": 7016,
      "##aito": 7017,
      "cheese_curds": 7018,
      "guavas": 7019,
      "anise_flavoring": 7020,
      "crab_claw": 7021,
      "rock_shrimp": 7022,
      "##_casings": 7023,
      "balsamic_glaze": 7024,
      "rice_cakes": 7025,
      "crostini": 7026,
      "shortbread": 7027,
      "broiler": 7028,
      "advocaat": 7029,
      "licor_4": 7030,
      "gingerbread_mix": 7031,
      "chestnut_puree": 7032,
      "crumb_topping": 7033,
      "teff_flour": 7034,
      "shiso_leaves": 7035,
      "ascorbic": 7036,
      "culantro": 7037,
      "fructo": 7038,
      "gai_lan": 7039,
      "hog_casings": 7040,
      "recaito": 7041,
      "trail_mix": 7042,
      "sugar_twin": 7043,
      "beef_jerky": 7044,
      "iced_tea": 7045,
      "peanut_brittle": 7046,
      "crab_claws": 7047,
      "licor_43": 7048,
      "ascorbic_acid": 7049,
      "fructose": 7050,
      "brin": 7051,
      "glu": 7052,
      "mil": 7053,
      "mack": 7054,
      "parmes": 7055,
      "rem": 7056,
      "##oin": 7057,
      "##oest": 7058,
      "##ovies": 7059,
      "##de_sauce": 7060,
      "##_rack": 7061,
      "##auce_mix": 7062,
      "##wass": 7063,
      "##erel": 7064,
      "##an_rind": 7065,
      "##_poin": 7066,
      "saltpe": 7067,
      "##ions": 7068,
      "onion_tops": 7069,
      "chai": 7070,
      "baking_sheet": 7071,
      "chicken_thigh": 7072,
      "dried_anch": 7073,
      "##_chorizo": 7074,
      "shoest": 7075,
      "##ortions": 7076,
      "sweet_rice": 7077,
      "##_filling": 7078,
      "pumpkin_butter": 7079,
      "cherry_syrup": 7080,
      "mint_leaf": 7081,
      "hot_pepper_paste": 7082,
      "toast_poin": 7083,
      "##ring_potatoes": 7084,
      "soy_chorizo": 7085,
      "yeast_extract": 7086,
      "bean_sauce": 7087,
      "lamb_rack": 7088,
      "pral": 7089,
      "fruit_filling": 7090,
      "pastina": 7091,
      "watermelon_juice": 7092,
      "pork_liver": 7093,
      "rock_sugar": 7094,
      "kirschwass": 7095,
      "chicken_portions": 7096,
      "achiote": 7097,
      "sago": 7098,
      "annatto_oil": 7099,
      "lingonberry_preserves": 7100,
      "pimento": 7101,
      "##oulade_sauce": 7102,
      "cheese_sauce_mix": 7103,
      "elderberries": 7104,
      "brinj": 7105,
      "glue": 7106,
      "milo": 7107,
      "mackerel": 7108,
      "parmesan_rind": 7109,
      "remoulade_sauce": 7110,
      "saltpeter": 7111,
      "chai_tea": 7112,
      "dried_anchovies": 7113,
      "shoestring_potatoes": 7114,
      "toast_points": 7115,
      "lamb_racks": 7116,
      "kirschwasser": 7117,
      "drin": 7118,
      "kl": 7119,
      "kn": 7120,
      "rap": 7121,
      "som": 7122,
      "tal": 7123,
      "tru": 7124,
      "##oix": 7125,
      "##poix": 7126,
      "##e_sticks": 7127,
      "##_sections": 7128,
      "##_pear": 7129,
      "##ritos": 7130,
      "onion_paste": 7131,
      "##repoix": 7132,
      "##king_chocolate": 7133,
      "lemon_basil": 7134,
      "sherbet": 7135,
      "##uski": 7136,
      "black_d": 7137,
      "rice_syrup": 7138,
      "sesame_sticks": 7139,
      "almond_filling": 7140,
      "cheesecake": 7141,
      "instant_flour": 7142,
      "##ockwurst": 7143,
      "caper": 7144,
      "apricot_juice": 7145,
      "bean_threads": 7146,
      "tahini_sauce": 7147,
      "mirepoix": 7148,
      "butterscotch_topping": 7149,
      "grapefruit_sections": 7150,
      "pretzel_crumbs": 7151,
      "hazelnut_extract": 7152,
      "##ecorating_gel": 7153,
      "white_chocolate_chunks": 7154,
      "pierogies": 7155,
      "asian_pear": 7156,
      "pea_shoots": 7157,
      "burritos": 7158,
      "drinking_chocolate": 7159,
      "kluski": 7160,
      "knockwurst": 7161,
      "somen_noodles": 7162,
      "truvia": 7163,
      "black_decorating_gel": 7164,
      "kluski_noodles": 7165,
      "abs": 7166,
      "chi": 7167,
      "clot": 7168,
      "du": 7169,
      "duc": 7170,
      "jack": 7171,
      "pol": 7172,
      "sch": 7173,
      "schnapps": 7174,
      "##ted_cream": 7175,
      "##_he": 7176,
      "##_juic": 7177,
      "##batter": 7178,
      "##io": 7179,
      "##malt": 7180,
      "##y_salt": 7181,
      "##kka": 7182,
      "##va": 7183,
      "##art": 7184,
      "##arco": 7185,
      "##_cola": 7186,
      "##_slice": 7187,
      "##ppa": 7188,
      "##lock": 7189,
      "##om_seeds": 7190,
      "charco": 7191,
      "sugar_cube": 7192,
      "sugar_can": 7193,
      "lemon_slice": 7194,
      "##_souff": 7195,
      "pepper_jelly": 7196,
      "carom_seeds": 7197,
      "pecan_meal": 7198,
      "beef_he": 7199,
      "##ettone": 7200,
      "dippers": 7201,
      "##inthe": 7202,
      "gray_salt": 7203,
      "grappa": 7204,
      "pork_hock": 7205,
      "##ake_batter": 7206,
      "pineapple_syrup": 7207,
      "cherry_cola": 7208,
      "smelt": 7209,
      "##ollen": 7210,
      "spinach_souff": 7211,
      "peach_puree": 7212,
      "cornmeal_mix": 7213,
      "pan_juic": 7214,
      "panettone": 7215,
      "avocado_dip": 7216,
      "##gras": 7217,
      "cranberry_jelly": 7218,
      "pancake_batter": 7219,
      "pear_brandy": 7220,
      "##ie_gras": 7221,
      "crabapples": 7222,
      "##elica": 7223,
      "angelica": 7224,
      "root_beer_extract": 7225,
      "lemon_twist": 7226,
      "fig_jam": 7227,
      "veggie_burger": 7228,
      "fruit_punch": 7229,
      "gingerbread": 7230,
      "barley_malt_syrup": 7231,
      "date_sugar": 7232,
      "pignolis": 7233,
      "foie_gras": 7234,
      "pimento_cheese": 7235,
      "absinthe": 7236,
      "clotted_cream": 7237,
      "dukka": 7238,
      "ducks": 7239,
      "jackfruit": 7240,
      "pollock": 7241,
      "schmalt": 7242,
      "charcoal": 7243,
      "sugar_cane": 7244,
      "beef_heart": 7245,
      "pork_hocks": 7246,
      "spinach_souffle": 7247,
      "pan_juices": 7248,
      "dukkah": 7249,
      "schmaltz": 7250,
      "bi": 7251,
      "jar": 7252,
      "ov": 7253,
      "slo": 7254,
      "truffl": 7255,
      "##ty_s": 7256,
      "##dan": 7257,
      "##dant": 7258,
      "##_zest": 7259,
      "##e_gin": 7260,
      "##ating": 7261,
      "##altine": 7262,
      "##utters": 7263,
      "##unf": 7264,
      "##sto": 7265,
      "##liton": 7266,
      "water_crackers": 7267,
      "##e_cups": 7268,
      "##e_cutters": 7269,
      "cornstarch_paste": 7270,
      "coating": 7271,
      "breadfruit": 7272,
      "scamp": 7273,
      "curing_salt": 7274,
      "shrimp_shells": 7275,
      "saunf": 7276,
      "pandan": 7277,
      "bread_rounds": 7278,
      "mandarin_orange": 7279,
      "raspberry_sauce": 7280,
      "##e_blan": 7281,
      "##eggio": 7282,
      "##d_cake": 7283,
      "mirliton": 7284,
      "fondant": 7285,
      "grapefruit_soda": 7286,
      "grapefruit_zest": 7287,
      "chipotle_paste": 7288,
      "mushroom_stock": 7289,
      "squash_puree": 7290,
      "farfel": 7291,
      "passion_fruit_puree": 7292,
      "lobster_ta": 7293,
      "balsamic_dressing": 7294,
      "lavender_buds": 7295,
      "pound_cake": 7296,
      "guava_jelly": 7297,
      "croissant": 7298,
      "cookie_cutters": 7299,
      "lettuce_cups": 7300,
      "fromage_blan": 7301,
      "patty_s": 7302,
      "pralines": 7303,
      "rapini": 7304,
      "taleggio": 7305,
      "bisto": 7306,
      "ovaltine": 7307,
      "sloe_gin": 7308,
      "coating_mix": 7309,
      "scampi": 7310,
      "pandan_leaves": 7311,
      "lobster_tail": 7312,
      "fromage_blanc": 7313,
      "patty_shells": 7314,
      "bar": 7315,
      "cloth": 7316,
      "deer": 7317,
      "ls": 7318,
      "pal": 7319,
      "ume": 7320,
      "wok": 7321,
      "##tea": 7322,
      "##late": 7323,
      "##s_of_p": 7324,
      "##bos": 7325,
      "##yal_": 7326,
      "##arad": 7327,
      "##d_steaks": 7328,
      "##e_al": 7329,
      "##_coke": 7330,
      "##owl": 7331,
      "##owels": 7332,
      "##et_coke": 7333,
      "##abok": 7334,
      "##e_slice": 7335,
      "##_towels": 7336,
      "alcohol": 7337,
      "lime_slice": 7338,
      "diet_coke": 7339,
      "cod_steaks": 7340,
      "rose_syrup": 7341,
      "plum_wine": 7342,
      "capon": 7343,
      "banana_bread": 7344,
      "pineapple_ring": 7345,
      "mache": 7346,
      "summer_sausage": 7347,
      "veal_bones": 7348,
      "jasmine_tea": 7349,
      "royal_": 7350,
      "lobster_base": 7351,
      "shortcakes": 7352,
      "root_vegetables": 7353,
      "pie_plate": 7354,
      "clementine": 7355,
      "clementine_juice": 7356,
      "paper_towels": 7357,
      "grains_of_p": 7358,
      "tandoori_masala": 7359,
      "pheasant": 7360,
      "chestnut_flour": 7361,
      "date_syrup": 7362,
      "kamabok": 7363,
      "lotus": 7364,
      "barberries": 7365,
      "lsa": 7366,
      "pale_al": 7367,
      "umebos": 7368,
      "wok_oil": 7369,
      "##aradise": 7370,
      "royal_icing": 7371,
      "grains_of_paradise": 7372,
      "kamaboko": 7373,
      "pale_ale": 7374,
      "umeboshi": 7375,
      "dough": 7376,
      "mul": 7377,
      "pil": 7378,
      "vi": 7379,
      "##pressata": 7380,
      "##cillo": 7381,
      "##bi": 7382,
      "##got": 7383,
      "##gator": 7384,
      "##oncillo": 7385,
      "##ligator": 7386,
      "sopressata": 7387,
      "shark": 7388,
      "marrow": 7389,
      "alligator": 7390,
      "orange_flavoring": 7391,
      "cooking_fat": 7392,
      "##e_pollen": 7393,
      "##_rods": 7394,
      "fish_roe": 7395,
      "artichok": 7396,
      "pasta_dough": 7397,
      "banana_leaf": 7398,
      "chocolate_leaves": 7399,
      "mustard_paste": 7400,
      "bread_mix": 7401,
      "wheatberries": 7402,
      "##efish": 7403,
      "tobi": 7404,
      "grapefruit_peel": 7405,
      "espresso_granules": 7406,
      "malt_extract": 7407,
      "corn_muffins": 7408,
      "pretzel_rods": 7409,
      "escargot": 7410,
      "squir": 7411,
      "sorbet": 7412,
      "candy_cane": 7413,
      "bee_pollen": 7414,
      "blackberry_wine": 7415,
      "orange_wedge": 7416,
      "lychee": 7417,
      "soybean_paste": 7418,
      "methi_leaves": 7419,
      "asian_seasoning": 7420,
      "pignoli_nuts": 7421,
      "nopales": 7422,
      "pickled_onions": 7423,
      "mulberries": 7424,
      "piloncillo": 7425,
      "violets": 7426,
      "alligator_meat": 7427,
      "artichoke": 7428,
      "tobiko": 7429,
      "aqu": 7430,
      "ammon": 7431,
      "eel": 7432,
      "fudge": 7433,
      "gom": 7434,
      "muffin": 7435,
      "pis": 7436,
      "ver": 7437,
      "##_amin": 7438,
      "##pets": 7439,
      "##slan": 7440,
      "##ie": 7441,
      "##imal": 7442,
      "##gli": 7443,
      "##m_flour": 7444,
      "##esers": 7445,
      "##arillo": 7446,
      "##ice_c": 7447,
      "##alad": 7448,
      "##_crab": 7449,
      "##_cakes": 7450,
      "##_seed_oil": 7451,
      "##_back": 7452,
      "garlic_toast": 7453,
      "##chutney": 7454,
      "lemon_vinaigrette": 7455,
      "##e_salad": 7456,
      "##ashio": 7457,
      "chicken_back": 7458,
      "coconut_amin": 7459,
      "conchi": 7460,
      "gram_flour": 7461,
      "basil_oil": 7462,
      "##ake_filling": 7463,
      "pumpkin_seed_oil": 7464,
      "cherry_chips": 7465,
      "apple_chips": 7466,
      "cannoli": 7467,
      "fish_bones": 7468,
      "fish_cakes": 7469,
      "animal": 7470,
      "##y_pears": 7471,
      "wheat_starch": 7472,
      "##avit": 7473,
      "##ickly_pears": 7474,
      "smoked_meat": 7475,
      "maca": 7476,
      "tamarillo": 7477,
      "prickly_pears": 7478,
      "fruit_spread": 7479,
      "doves": 7480,
      "tamarind_chutney": 7481,
      "coffee_ice_c": 7482,
      "purslan": 7483,
      "imitation_crab": 7484,
      "maltesers": 7485,
      "pistachio_ice_cream": 7486,
      "duck_stock": 7487,
      "pork_bones": 7488,
      "lobster_stock": 7489,
      "cranberry_juice_concentrate": 7490,
      "risoni": 7491,
      "cheesecake_filling": 7492,
      "achiote_oil": 7493,
      "olive_salad": 7494,
      "crumpets": 7495,
      "patis": 7496,
      "kamut": 7497,
      "perch": 7498,
      "caper_juice": 7499,
      "mirlitons": 7500,
      "doughnuts": 7501,
      "aquavit": 7502,
      "ammonia": 7503,
      "gomashio": 7504,
      "muffins": 7505,
      "pisco": 7506,
      "##glie": 7507,
      "chicken_backs": 7508,
      "coconut_aminos": 7509,
      "conchiglie": 7510,
      "cannoli_shells": 7511,
      "animal_crackers": 7512,
      "tamarillos": 7513,
      "coffee_ice_cubes": 7514,
      "purslane": 7515,
      "imitation_crab_sticks": 7516,
      "ab": 7517,
      "cuc": 7518,
      "cray": 7519,
      "dra": 7520,
      "fid": 7521,
      "mea": 7522,
      "pos": 7523,
      "shi": 7524,
      "wash": 7525,
      "yu": 7526,
      "yak": 7527,
      "##ees": 7528,
      "##eos": 7529,
      "##des": 7530,
      "##uzz": 7531,
      "##gees": 7532,
      "##e_hips": 7533,
      "##ing_soda": 7534,
      "##reasts": 7535,
      "chap": 7536,
      "green_chutney": 7537,
      "##_wedges": 7538,
      "creamed_spinach": 7539,
      "##meji": 7540,
      "honey_syrup": 7541,
      "speck": 7542,
      "beef_fat": 7543,
      "black_food_coloring": 7544,
      "pork_broth": 7545,
      "curry_leaf": 7546,
      "bluefish": 7547,
      "##_stickers": 7548,
      "roses": 7549,
      "rose_hips": 7550,
      "caper_berries": 7551,
      "apricot_puree": 7552,
      "dry_ice": 7553,
      "spring_rolls": 7554,
      "##ciatelli": 7555,
      "dove_b": 7556,
      "gelatin_sheets": 7557,
      "pastry_cream": 7558,
      "stock_cubes": 7559,
      "watermelon_wedges": 7560,
      "##isoba_noodles": 7561,
      "pot_stickers": 7562,
      "swedes": 7563,
      "cassia": 7564,
      "quince_paste": 7565,
      "lingonberry_jam": 7566,
      "perciatelli": 7567,
      "##ve_blossoms": 7568,
      "brinjal": 7569,
      "chive_blossoms": 7570,
      "cucuzz": 7571,
      "crayfish": 7572,
      "dragees": 7573,
      "fideos": 7574,
      "mead": 7575,
      "shimeji": 7576,
      "washing_soda": 7577,
      "yuzu": 7578,
      "yakisoba_noodles": 7579,
      "chapati": 7580,
      "dove_breasts": 7581,
      "cucuzza": 7582,
      "shimeji_mushrooms": 7583,
      "ahi": 7584,
      "azuki_beans": 7585,
      "crout": 7586,
      "fala": 7587,
      "fowl": 7588,
      "gell": 7589,
      "jer": 7590,
      "jag": 7591,
      "kon": 7592,
      "kat": 7593,
      "##tl": 7594,
      "##tridg": 7595,
      "##le_mix": 7596,
      "##ha": 7597,
      "##rels": 7598,
      "##cap": 7599,
      "##k_sauce": 7600,
      "##erme": 7601,
      "##esco": 7602,
      "##arra": 7603,
      "##e_ang": 7604,
      "##e_meat": 7605,
      "##ichi": 7606,
      "##anesco": 7607,
      "##_curls": 7608,
      "##ppressata": 7609,
      "##garashi": 7610,
      "##laise": 7611,
      "##ing_sugar": 7612,
      "##heese_f": 7613,
      "butterfish": 7614,
      "##cks": 7615,
      "red_dates": 7616,
      "lemon_butter": 7617,
      "chicken_halves": 7618,
      "soppressata": 7619,
      "##ister": 7620,
      "shichi": 7621,
      "carrot_curls": 7622,
      "tomato_jam": 7623,
      "cookie_mix": 7624,
      "##ghul": 7625,
      "alcap": 7626,
      "rava": 7627,
      "##akuri": 7628,
      "turtl": 7629,
      "almond_powder": 7630,
      "romanesco": 7631,
      "shrimp_sauce": 7632,
      "spinach_dip": 7633,
      "creme_ang": 7634,
      "##_togarashi": 7635,
      "##mi_togarashi": 7636,
      "fruit_sna": 7637,
      "tape": 7638,
      "wontons": 7639,
      "chipits": 7640,
      "candied_vi": 7641,
      "crawfish_fat": 7642,
      "processed_cheese_f": 7643,
      "mushroom_cap": 7644,
      "tempura_b": 7645,
      "hazelnut_butter": 7646,
      "partridg": 7647,
      "porter": 7648,
      "gumdrop": 7649,
      "##alitos": 7650,
      "achiote_seeds": 7651,
      "waffle_mix": 7652,
      "lime_curd": 7653,
      "pimms": 7654,
      "burghul": 7655,
      "nopalitos": 7656,
      "brinjals": 7657,
      "caponata": 7658,
      "lotus_seeds": 7659,
      "shark_steaks": 7660,
      "squirrels": 7661,
      "crouton": 7662,
      "falafel": 7663,
      "gelling_sugar": 7664,
      "jerk_sauce": 7665,
      "jagerme": 7666,
      "katakuri": 7667,
      "##arrado": 7668,
      "shichimi_togarashi": 7669,
      "alcaparrado": 7670,
      "turtle_meat": 7671,
      "creme_anglaise": 7672,
      "fruit_snacks": 7673,
      "candied_violets": 7674,
      "processed_cheese_food": 7675,
      "tempura_batter": 7676,
      "partridges": 7677,
      "jagermeister": 7678,
      "katakuriko": 7679,
      "bres": 7680,
      "dog": 7681,
      "gour": 7682,
      "glitter": 7683,
      "hake": 7684,
      "ly": 7685,
      "moo": 7686,
      "nett": 7687,
      "ruc": 7688,
      "sals": 7689,
      "sang": 7690,
      "ti": 7691,
      "tag": 7692,
      "veget": 7693,
      "##eer_c": 7694,
      "##eba": 7695,
      "##_liqu": 7696,
      "##if": 7697,
      "##m_c": 7698,
      "##fit": 7699,
      "##zor": 7700,
      "##zuna": 7701,
      "##arils": 7702,
      "##ongu": 7703,
      "##_caviar": 7704,
      "##_beer_c": 7705,
      "##ria": 7706,
      "##liolini": 7707,
      "choke": 7708,
      "peppercorn": 7709,
      "sweet_bean_paste": 7710,
      "##_tongu": 7711,
      "beef_tongu": 7712,
      "ginger_liqueur": 7713,
      "black_pudding": 7714,
      "razor": 7715,
      "breadstick": 7716,
      "cooking_sauce": 7717,
      "##okra": 7718,
      "whiteba": 7719,
      "kim_c": 7720,
      "salmon_caviar": 7721,
      "chocolate_spread": 7722,
      "pumpkin_pie": 7723,
      "oyster_liqu": 7724,
      "lamb_bones": 7725,
      "clam_base": 7726,
      "caramel_extract": 7727,
      "mizuna": 7728,
      "##aola": 7729,
      "halva": 7730,
      "malt_syrup": 7731,
      "duck_con": 7732,
      "lobster_shells": 7733,
      "plantain_chips": 7734,
      "##ura_flour": 7735,
      "tempura_flour": 7736,
      "sea_bream": 7737,
      "root_beer_c": 7738,
      "pomegranate_arils": 7739,
      "boar": 7740,
      "decorating_gel": 7741,
      "olive": 7742,
      "borage": 7743,
      "pickled_okra": 7744,
      "truffle_salt": 7745,
      "posole": 7746,
      "falafel_mix": 7747,
      "bresaola": 7748,
      "dog_food": 7749,
      "gourd": 7750,
      "lye": 7751,
      "moose": 7752,
      "nettles": 7753,
      "rucola": 7754,
      "salsif": 7755,
      "sangria": 7756,
      "ti_leaves": 7757,
      "tagliolini": 7758,
      "vegeta": 7759,
      "chokecherries": 7760,
      "beef_tongue": 7761,
      "razor_clams": 7762,
      "whitebait": 7763,
      "kim_chee": 7764,
      "oyster_liquor": 7765,
      "duck_confit": 7766,
      "root_beer_concentrate": 7767,
      "salsify": 7768,
      "cla": 7769,
      "king": 7770,
      "kashi": 7771,
      "ok": 7772,
      "ru": 7773,
      "renn": 7774,
      "sev": 7775,
      "wat": 7776,
      "wood_": 7777,
      "ya": 7778,
      "##ops": 7779,
      "##tles": 7780,
      "##twi": 7781,
      "##elo": 7782,
      "##dr": 7783,
      "##hog": 7784,
      "##pis": 7785,
      "##breads": 7786,
      "##nan": 7787,
      "##molat": 7788,
      "##mich": 7789,
      "##ya": 7790,
      "##jiki": 7791,
      "##jma": 7792,
      "##vlax": 7793,
      "##zes": 7794,
      "##onji": 7795,
      "##_seaweed": 7796,
      "##utia": 7797,
      "##endr": 7798,
      "salted_s": 7799,
      "##ter_mushrooms": 7800,
      "##urri": 7801,
      "##urage": 7802,
      "##_bottl": 7803,
      "cheri": 7804,
      "##_med": 7805,
      "chicken_skin": 7806,
      "dried_sc": 7807,
      "##hite_powder": 7808,
      "##leye": 7809,
      "##_oys": 7810,
      "##ddie": 7811,
      "corn_nuts": 7812,
      "sweetbreads": 7813,
      "##_tendr": 7814,
      "spray": 7815,
      "walleye": 7816,
      "raita": 7817,
      "rajma": 7818,
      "egg_white_powder": 7819,
      "coconut_sorbet": 7820,
      "##intzes": 7821,
      "gravlax": 7822,
      "##allions": 7823,
      "curd_cheese": 7824,
      "pipis": 7825,
      "ham_bones": 7826,
      "kalonji": 7827,
      "gremolat": 7828,
      "carambo": 7829,
      "tuna_salad": 7830,
      "beet_sugar": 7831,
      "##_shoot": 7832,
      "rye_berries": 7833,
      "blintzes": 7834,
      "bamboo_shoot": 7835,
      "##_haddie": 7836,
      "pastis": 7837,
      "##moya": 7838,
      "finnan": 7839,
      "candy_coating": 7840,
      "candy_bar": 7841,
      "loquats": 7842,
      "veal_med": 7843,
      "rockfish": 7844,
[...]
